{
  "version": "1.0",
  "truncation": null,
  "padding": null,
  "added_tokens": [
    {
      "id": 0,
      "content": "<|endoftext|>",
      "single_word": false,
      "lstrip": false,
      "rstrip": false,
      "normalized": false,
      "special": true
    },
    {
      "id": 1,
      "content": "<|im_start|>",
      "single_word": false,
      "lstrip": false,
      "rstrip": false,
      "normalized": false,
      "special": true
    },
    {
      "id": 2,
      "content": "<|im_end|>",
      "single_word": false,
      "lstrip": false,
      "rstrip": false,
      "normalized": false,
      "special": true
    }
  ],
  "normalizer": null,
  "pre_tokenizer": {
    "type": "ByteLevel",
    "add_prefix_space": false,
    "trim_offsets": true,
    "use_regex": true
  },
  "post_processor": null,
  "decoder": {
    "type": "ByteLevel",
    "add_prefix_space": true,
    "trim_offsets": true,
    "use_regex": true
  },
  "model": {
    "type": "BPE",
    "dropout": null,
    "unk_token": null,
    "continuing_subword_prefix": null,
    "end_of_word_suffix": null,
    "fuse_unk": false,
    "byte_fallback": false,
    "ignore_merges": false,
    "vocab": {
      "<|endoftext|>": 0,
      "<|im_start|>": 1,
      "<|im_end|>": 2,
      "!": 3,
      "\"": 4,
      "#": 5,
      "$": 6,
      "%": 7,
      "&": 8,
      "'": 9,
      "(": 10,
      ")": 11,
      "*": 12,
      "+": 13,
      ",": 14,
      "-": 15,
      ".": 16,
      "/": 17,
      "0": 18,
      "1": 19,
      "2": 20,
      "3": 21,
      "4": 22,
      "5": 23,
      "6": 24,
      "7": 25,
      "8": 26,
      "9": 27,
      ":": 28,
      ";": 29,
      "<": 30,
      "=": 31,
      ">": 32,
      "?": 33,
      "@": 34,
      "A": 35,
      "B": 36,
      "C": 37,
      "D": 38,
      "E": 39,
      "F": 40,
      "G": 41,
      "H": 42,
      "I": 43,
      "J": 44,
      "K": 45,
      "L": 46,
      "M": 47,
      "N": 48,
      "O": 49,
      "P": 50,
      "Q": 51,
      "R": 52,
      "S": 53,
      "T": 54,
      "U": 55,
      "V": 56,
      "W": 57,
      "X": 58,
      "Y": 59,
      "Z": 60,
      "[": 61,
      "\\": 62,
      "]": 63,
      "^": 64,
      "_": 65,
      "`": 66,
      "a": 67,
      "b": 68,
      "c": 69,
      "d": 70,
      "e": 71,
      "f": 72,
      "g": 73,
      "h": 74,
      "i": 75,
      "j": 76,
      "k": 77,
      "l": 78,
      "m": 79,
      "n": 80,
      "o": 81,
      "p": 82,
      "q": 83,
      "r": 84,
      "s": 85,
      "t": 86,
      "u": 87,
      "v": 88,
      "w": 89,
      "x": 90,
      "y": 91,
      "z": 92,
      "{": 93,
      "|": 94,
      "}": 95,
      "~": 96,
      "¡": 97,
      "¢": 98,
      "£": 99,
      "¤": 100,
      "¥": 101,
      "¦": 102,
      "§": 103,
      "¨": 104,
      "©": 105,
      "ª": 106,
      "«": 107,
      "¬": 108,
      "®": 109,
      "¯": 110,
      "°": 111,
      "±": 112,
      "²": 113,
      "³": 114,
      "´": 115,
      "µ": 116,
      "¶": 117,
      "·": 118,
      "¸": 119,
      "¹": 120,
      "º": 121,
      "»": 122,
      "¼": 123,
      "½": 124,
      "¾": 125,
      "¿": 126,
      "À": 127,
      "Á": 128,
      "Â": 129,
      "Ã": 130,
      "Ä": 131,
      "Å": 132,
      "Æ": 133,
      "Ç": 134,
      "È": 135,
      "É": 136,
      "Ê": 137,
      "Ë": 138,
      "Ì": 139,
      "Í": 140,
      "Î": 141,
      "Ï": 142,
      "Ð": 143,
      "Ñ": 144,
      "Ò": 145,
      "Ó": 146,
      "Ô": 147,
      "Õ": 148,
      "Ö": 149,
      "×": 150,
      "Ø": 151,
      "Ù": 152,
      "Ú": 153,
      "Û": 154,
      "Ü": 155,
      "Ý": 156,
      "Þ": 157,
      "ß": 158,
      "à": 159,
      "á": 160,
      "â": 161,
      "ã": 162,
      "ä": 163,
      "å": 164,
      "æ": 165,
      "ç": 166,
      "è": 167,
      "é": 168,
      "ê": 169,
      "ë": 170,
      "ì": 171,
      "í": 172,
      "î": 173,
      "ï": 174,
      "ð": 175,
      "ñ": 176,
      "ò": 177,
      "ó": 178,
      "ô": 179,
      "õ": 180,
      "ö": 181,
      "÷": 182,
      "ø": 183,
      "ù": 184,
      "ú": 185,
      "û": 186,
      "ü": 187,
      "ý": 188,
      "þ": 189,
      "ÿ": 190,
      "Ā": 191,
      "ā": 192,
      "Ă": 193,
      "ă": 194,
      "Ą": 195,
      "ą": 196,
      "Ć": 197,
      "ć": 198,
      "Ĉ": 199,
      "ĉ": 200,
      "Ċ": 201,
      "ċ": 202,
      "Č": 203,
      "č": 204,
      "Ď": 205,
      "ď": 206,
      "Đ": 207,
      "đ": 208,
      "Ē": 209,
      "ē": 210,
      "Ĕ": 211,
      "ĕ": 212,
      "Ė": 213,
      "ė": 214,
      "Ę": 215,
      "ę": 216,
      "Ě": 217,
      "ě": 218,
      "Ĝ": 219,
      "ĝ": 220,
      "Ğ": 221,
      "ğ": 222,
      "Ġ": 223,
      "ġ": 224,
      "Ģ": 225,
      "ģ": 226,
      "Ĥ": 227,
      "ĥ": 228,
      "Ħ": 229,
      "ħ": 230,
      "Ĩ": 231,
      "ĩ": 232,
      "Ī": 233,
      "ī": 234,
      "Ĭ": 235,
      "ĭ": 236,
      "Į": 237,
      "į": 238,
      "İ": 239,
      "ı": 240,
      "Ĳ": 241,
      "ĳ": 242,
      "Ĵ": 243,
      "ĵ": 244,
      "Ķ": 245,
      "ķ": 246,
      "ĸ": 247,
      "Ĺ": 248,
      "ĺ": 249,
      "Ļ": 250,
      "ļ": 251,
      "Ľ": 252,
      "ľ": 253,
      "Ŀ": 254,
      "ŀ": 255,
      "Ł": 256,
      "ł": 257,
      "Ń": 258,
      "ï¼": 259,
      "çļ": 260,
      "çļĦ": 261,
      "ï¼Į": 262,
      "ä¸": 263,
      "ãĢ": 264,
      "ãĢĤ": 265,
      "äº": 266,
      "æľ": 267,
      "ä»": 268,
      "åı": 269,
      "æĸ": 270,
      "åĢ": 271,
      "æĪ": 272,
      "åľ": 273,
      "åħ": 274,
      "im": 275,
      "|>": 276,
      "<|": 277,
      "æĺ": 278,
      "ä¸Ģ": 279,
      "éĢ": 280,
      "å°": 281,
      "ä½": 282,
      "åĴ": 283,
      "åĴĮ": 284,
      "çĶ": 285,
      "å¤": 286,
      "å®": 287,
      "åĪ": 288,
      "åŃ": 289,
      "æĺ¯": 290,
      "éģ": 291,
      "åĢĭ": 292,
      "åĲ": 293,
      "ä»¥": 294,
      "å¾": 295,
      "ãĢģ": 296,
      "æĪĳ": 297,
      "è¦": 298,
      "åľ¨": 299,
      "è¡": 300,
      "äºº": 301,
      "çļĦæ": 302,
      "åĬ": 303,
      "ar": 304,
      "en": 305,
      "ä¾": 306,
      "st": 307,
      "art": 308,
      "end": 309,
      "start": 310,
      "æľī": 311,
      "ï¼ļ": 312,
      "è¨": 313,
      "éĢĻ": 314,
      "åı¯": 315,
      "æŃ": 316,
      "äºĨ": 317,
      "æĻ": 318,
      "è©": 319,
      "ä¸Ń": 320,
      "é¡": 321,
      "ãĢĤ<|": 322,
      "å·": 323,
      "æĸĩ": 324,
      "çĤ": 325,
      "ĥ½": 326,
      "çµ": 327,
      "è¦ģ": 328,
      "çĤº": 329,
      "èª": 330,
      "çī": 331,
      "éĩ": 332,
      "æı": 333,
      "åĢĳ": 334,
      "çļĦå": 335,
      "èĢ": 336,
      "å¸": 337,
      "å¥": 338,
      "åĭ": 339,
      "ä¸į": 340,
      "çĶ¨": 341,
      "éĽ": 342,
      "çĶŁ": 343,
      "è³": 344,
      "é«": 345,
      "ä¹": 346,
      "å¹": 347,
      "åı¯ä»¥": 348,
      "çŃ": 349,
      "èĩ": 350,
      "éĿ": 351,
      "æ³": 352,
      "Ġ<|": 353,
      "èĥ½": 354,
      "æĦ": 355,
      "ç¨": 356,
      "æķ": 357,
      "æĽ": 358,
      "çĻ": 359,
      "å¯": 360,
      "ä¾Ĩ": 361,
      "æī": 362,
      "âĢ": 363,
      "åº": 364,
      "åĮ": 365,
      "éĸ": 366,
      "ç´": 367,
      "çĽ": 368,
      "ä¸ĭ": 369,
      "ä¸ĢåĢĭ": 370,
      "¦Ĥ": 371,
      "å¼": 372,
      "çĲ": 373,
      "æĪĲ": 374,
      "åĩ": 375,
      "æİ": 376,
      "åŃ¸": 377,
      "æ°": 378,
      "æıĲ": 379,
      "ä¿": 380,
      "åĪ°": 381,
      "ä»ĸ": 382,
      "åĽ": 383,
      "æ¨": 384,
      "æŀ": 385,
      "åĵ": 386,
      "å¦Ĥ": 387,
      "åĩº": 388,
      "å°į": 389,
      "ç¶": 390,
      "æħ": 391,
      "è¡Į": 392,
      "æĶ": 393,
      "æĥ": 394,
      "ç«": 395,
      "æĵ": 396,
      "æĸ¼": 397,
      "ä½ł": 398,
      "åŃĲ": 399,
      "èŃ": 400,
      "ä¸Ĭ": 401,
      "åį": 402,
      "è§": 403,
      "æĢ": 404,
      "åľ°": 405,
      "éł": 406,
      "é¡Į": 407,
      "çĦ": 408,
      "æĬ": 409,
      "è®": 410,
      "åķ": 411,
      "å°ı": 412,
      "æĻĤ": 413,
      "å½": 414,
      "æľĥ": 415,
      "éĤ": 416,
      "è«": 417,
      "çŃī": 418,
      "æĸ¹": 419,
      "å¿": 420,
      "åĪĨ": 421,
      "çķ": 422,
      "æĽ´": 423,
      "äºĽ": 424,
      "å¥½": 425,
      "å¤ļ": 426,
      "ç¾": 427,
      "èĩª": 428,
      "å¤§": 429,
      "éĹ": 430,
      "èĪ": 431,
      "è¿": 432,
      "æ¯": 433,
      "ï¼Ł": 434,
      "ä½ľ": 435,
      "çī©": 436,
      "çı": 437,
      "åĭķ": 438,
      "å·¥": 439,
      "éĹľ": 440,
      "å±": 441,
      "éº": 442,
      "åŃĹ": 443,
      "åī": 444,
      "éľ": 445,
      "æĪĳåĢĳ": 446,
      "ä¸¦": 447,
      "æľĢ": 448,
      "å®ļ": 449,
      "çĻ¼": 450,
      "éļ": 451,
      "è²": 452,
      "çļĦç": 453,
      "é«Ķ": 454,
      "é£": 455,
      "è³ĩ": 456,
      "æ±": 457,
      "é»": 458,
      "åħ¶": 459,
      "æŀľ": 460,
      "ç¨®": 461,
      "ä½¿": 462,
      "çı¾": 463,
      "åĸ": 464,
      "å»": 465,
      "éģİ": 466,
      "æ¥": 467,
      "éĢ²": 468,
      "åĳ": 469,
      "è£": 470,
      "æł": 471,
      "æ³ķ": 472,
      "ç¯": 473,
      "åŁ": 474,
      "éĿ¢": 475,
      "æĸ°": 476,
      "æĤ": 477,
      "æĹ": 478,
      "çµ¦": 479,
      "å¤©": 480,
      "å®ĥ": 481,
      "çľ": 482,
      "ĩī": 483,
      "å°ĩ": 484,
      "åĬĽ": 485,
      "çĲĨ": 486,
      "èģ": 487,
      "ç©": 488,
      "æ©": 489,
      "éľĢ": 490,
      "æĺİ": 491,
      "æ´": 492,
      "åģ": 493,
      "éĻ": 494,
      "æ¸": 495,
      "æ²": 496,
      "åĲĮ": 497,
      "åĮĸ": 498,
      "æĮ": 499,
      "è¼": 500,
      "æĪĸ": 501,
      "åĬł": 502,
      "éĩį": 503,
      "å¸¸": 504,
      "æĢ§": 505,
      "ä¿Ŀ": 506,
      "é«ĺ": 507,
      "æĭ": 508,
      "åı¥": 509,
      "åĽł": 510,
      "è¶": 511,
      "æĦŁ": 512,
      "ä¹Ł": 513,
      "æº": 514,
      "å®¶": 515,
      "µ·": 516,
      "ä¸»": 517,
      "èªŀ": 518,
      "èĳ": 519,
      "é¡ŀ": 520,
      "åİ": 521,
      "ç¿": 522,
      "åķı": 523,
      "èī": 524,
      "çĦ¶": 525,
      "æ©Ł": 526,
      "ç«ł": 527,
      "ç·": 528,
      "å¾Ĺ": 529,
      "âĢĿ": 530,
      "æĸĩåŃĹ": 531,
      "æĩī": 532,
      "æĸĩç«ł": 533,
      "èĢħ": 534,
      "éĽ»": 535,
      "âĢľ": 536,
      "åł": 537,
      "éľĢè¦ģ": 538,
      "æĻº": 539,
      "æħ§": 540,
      "æĬĢ": 541,
      "éº¼": 542,
      "è§£": 543,
      "å½±": 544,
      "å¼ı": 545,
      "åĵģ": 546,
      "éŁ": 547,
      "ç®": 548,
      "ä¹ĭ": 549,
      "æĻºæħ§": 550,
      "ç§": 551,
      "æĥħ": 552,
      "æĤ¨": 553,
      "ç¶ĵ": 554,
      "åº¦": 555,
      "èĢĮ": 556,
      "ç¢": 557,
      "éĸĵ": 558,
      "è«ĭ": 559,
      "èĳĹ": 560,
      "å¢": 561,
      "ç¤": 562,
      "å¾Ī": 563,
      "è¡¨": 564,
      "æŃ¤": 565,
      "çŁ": 566,
      "åľĭ": 567,
      "åħ¬": 568,
      "é»ŀ": 569,
      "è¨Ī": 570,
      "è¡ĵ": 571,
      "ä½¿çĶ¨": 572,
      "éĩı": 573,
      "èī²": 574,
      "ç³": 575,
      "æ°£": 576,
      "éĢĻåĢĭ": 577,
      "è©ŀ": 578,
      "èĻ": 579,
      "ç¾İ": 580,
      "åıĸ": 581,
      "ç¿Ĵ": 582,
      "åĲį": 583,
      "æĿ": 584,
      "åĲĪ": 585,
      "è©²": 586,
      "å¹´": 587,
      "ä½Ĩ": 588,
      "è·": 589,
      "æ¥Ń": 590,
      "æ®": 591,
      "é¤": 592,
      "æ¬": 593,
      "ä¾Ľ": 594,
      "åĤ": 595,
      "æĸĻ": 596,
      "å¾Į": 597,
      "å¾ŀ": 598,
      "éĤĦ": 599,
      "äºĭ": 600,
      "æīĢ": 601,
      "ä»¥ä¸ĭ": 602,
      "æĵļ": 603,
      "åķıé¡Į": 604,
      "å¯¦": 605,
      "èĪĩ": 606,
      "çĽ¸": 607,
      "æĦı": 608,
      "å¿ĥ": 609,
      "çĲĥ": 610,
      "ä¸ĢäºĽ": 611,
      "éĥ½": 612,
      "æıĲä¾Ľ": 613,
      "éĢ²è¡Į": 614,
      "æ´»": 615,
      "åĮħ": 616,
      "éĥ": 617,
      "æł¹": 618,
      "èĤ": 619,
      "æ¡": 620,
      "æ¼": 621,
      "éĨ": 622,
      "ä¼": 623,
      "åħ¥": 624,
      "Ĵ°": 625,
      "åı¥åŃĲ": 626,
      "åĥ": 627,
      "é£Ł": 628,
      "åħ¨": 629,
      "é¦": 630,
      "è¿°": 631,
      "äººå·¥": 632,
      "å¤ĸ": 633,
      "ç¨ĭ": 634,
      "æĥ³": 635,
      "éĸĭ": 636,
      "éĿŀ": 637,
      "çī¹": 638,
      "äººå·¥æĻºæħ§": 639,
      "åħ§": 640,
      "å±ķ": 641,
      "çķ¶": 642,
      "æ·": 643,
      "è®Ĭ": 644,
      "æŃ£": 645,
      "æł¹æĵļ": 646,
      "åİ»": 647,
      "æŁ": 648,
      "æ°´": 649,
      "æ¯Ķ": 650,
      "èªª": 651,
      "æ®µ": 652,
      "åŃ¸ç¿Ĵ": 653,
      "æĺ¯ä¸Ģ": 654,
      "è®ĵ": 655,
      "è¢": 656,
      "ç¢º": 657,
      "å¯«": 658,
      "åĬ©": 659,
      "çİ": 660,
      "åĪ¥": 661,
      "è¨Ĭ": 662,
      "ä»Ģ": 663,
      "è»": 664,
      "ä»Ģéº¼": 665,
      "åŀ": 666,
      "æķ¸": 667,
      "æľ¬": 668,
      "çį": 669,
      "å»º": 670,
      "çĶ¢": 671,
      "åħ·": 672,
      "éģĵ": 673,
      "çµĲ": 674,
      "åĨ": 675,
      "å¸Ĥ": 676,
      "ç¯ĩ": 677,
      "èº": 678,
      "éį": 679,
      "çĴ°": 680,
      "æ¡Ī": 681,
      "èµ·": 682,
      "æĬĢè¡ĵ": 683,
      "éĥ¨": 684,
      "æµ": 685,
      "çľĭ": 686,
      "è©±": 687,
      "ķ·": 688,
      "éķ·": 689,
      "åıĬ": 690,
      "è£¡": 691,
      "ç¸": 692,
      "éĤ£": 693,
      "åĻ": 694,
      "ä½ķ": 695,
      "éĿŀå¸¸": 696,
      "åĭĻ": 697,
      "éģ¸": 698,
      "ç®Ĺ": 699,
      "æ¯ı": 700,
      "èº«": 701,
      "å¹«": 702,
      "è¢«": 703,
      "éģ©": 704,
      "å°ĳ": 705,
      "å·±": 706,
      "éĢı": 707,
      "æĭ¬": 708,
      "èĲ": 709,
      "èĩªå·±": 710,
      "çĦ¡": 711,
      "ä»ĸåĢĳ": 712,
      "å®¹": 713,
      "è¬": 714,
      "åıĹ": 715,
      "åı¯èĥ½": 716,
      "æŃ¡": 717,
      "è³ĩè¨Ĭ": 718,
      "èı": 719,
      "è±": 720,
      "çĭ": 721,
      "éĮ": 722,
      "åīį": 723,
      "éĨ«": 724,
      "§ĭ": 725,
      "éĢļ": 726,
      "åł´": 727,
      "åĻ¨": 728,
      "èĻķ": 729,
      "å£": 730,
      "éłĺ": 731,
      "¢¨": 732,
      "åŀĭ": 733,
      "åĸľ": 734,
      "ä½į": 735,
      "éĽ»å½±": 736,
      "çŃĶ": 737,
      "è³ª": 738,
      "é©": 739,
      "é¢¨": 740,
      "èŃ°": 741,
      "åĪ©": 742,
      "åħ©": 743,
      "äº¤": 744,
      "æĹ¥": 745,
      "ç§ĳ": 746,
      "éĢĻäºĽ": 747,
      "éĢıéģİ": 748,
      "å¢ĥ": 749,
      "è³ĩæĸĻ": 750,
      "æīĭ": 751,
      "éŁ¿": 752,
      "çĪ": 753,
      "åģ¥": 754,
      "çĽ®": 755,
      "ä¾ĭ": 756,
      "çĹ": 757,
      "éħ": 758,
      "éĩįè¦ģ": 759,
      "å¦Ĥæŀľ": 760,
      "èĹ": 761,
      "ä»£": 762,
      "æĮģ": 763,
      "çĶŁæĪĲ": 764,
      "è«ĸ": 765,
      "åĦ": 766,
      "ä»»": 767,
      "åĮħæĭ¬": 768,
      "çĻ¼å±ķ": 769,
      "åŁŁ": 770,
      "°¡": 771,
      "åĽŀ": 772,
      "åı¸": 773,
      "æķĪ": 774,
      "å¥½çļĦ": 775,
      "è¨Ģ": 776,
      "å°ıæĺİ": 777,
      "æ¨Ļ": 778,
      "å°±": 779,
      "æ²Ĵ": 780,
      "è§Ģ": 781,
      "å¹³": 782,
      "æ±Ĥ": 783,
      "çµ±": 784,
      "èĬ": 785,
      "æĶ¹": 786,
      "æĶ¾": 787,
      "æİ¨": 788,
      "æľª": 789,
      "è¨Ń": 790,
      "è·¯": 791,
      "åº·": 792,
      "ä¸ī": 793,
      "ç¸½": 794,
      "çŁ¥": 795,
      "æ±º": 796,
      "ä»¶": 797,
      "ç¬": 798,
      "æľŁ": 799,
      "ç°¡": 800,
      "åĸľæŃ¡": 801,
      "å¤ł": 802,
      "èŃĺ": 803,
      "åħ¬åı¸": 804,
      "ç¥": 805,
      "æıı": 806,
      "æĸ·": 807,
      "æµ·": 808,
      "ç¶²": 809,
      "ç¾©": 810,
      "æ¨Ĥ": 811,
      "å¼·": 812,
      "éģĬ": 813,
      "çµ¦å®ļ": 814,
      "äººé¡ŀ": 815,
      "ç¤¾": 816,
      "æ¶": 817,
      "ç¯Ģ": 818,
      "æ»": 819,
      "æ¥µ": 820,
      "çł": 821,
      "æ¨£": 822,
      "æ¸Ľ": 823,
      "éłĺåŁŁ": 824,
      "å®ī": 825,
      "ç³»": 826,
      "éģĶ": 827,
      "çĶŁæ´»": 828,
      "å¹«åĬ©": 829,
      "çĻĤ": 830,
      "åĸ®": 831,
      "æľį": 832,
      "æ·±": 833,
      "çĶ±": 834,
      "åĽłæŃ¤": 835,
      "ä¸įåĲĮ": 836,
      "æŃ¥": 837,
      "å·¥ä½ľ": 838,
      "æĺŁ": 839,
      "éŁ³": 840,
      "å¤ª": 841,
      "æµģ": 842,
      "çĸ": 843,
      "çģ": 844,
      "ä¸ŃçļĦ": 845,
      "è»Ĭ": 846,
      "ä¸ĸ": 847,
      "çĨ": 848,
      "æ²Ĵæľī": 849,
      "ç¹": 850,
      "æ¿": 851,
      "å·²": 852,
      "å¸¶": 853,
      "æıĲåıĸ": 854,
      "èĺ": 855,
      "åĽłçĤº": 856,
      "æĻ¯": 857,
      "æ³¨": 858,
      "åıĭ": 859,
      "å°İ": 860,
      "æııè¿°": 861,
      "åģļ": 862,
      "æ¬¡": 863,
      "æļ": 864,
      "çĩ": 865,
      "æ¨¡": 866,
      "åģ¥åº·": 867,
      "è©¦": 868,
      "åĹ": 869,
      "éįµ": 870,
      "åĪ¶": 871,
      "å®ĥåĢĳ": 872,
      "æıĲé«ĺ": 873,
      "èªį": 874,
      "èĩªçĦ¶": 875,
      "éģĭ": 876,
      "ãĢĭ": 877,
      "ãĢĬ": 878,
      "èŃ·": 879,
      "å¦Ĥä½ķ": 880,
      "æł¼": 881,
      "å¢ŀ": 882,
      "èħ": 883,
      "æĻĤéĸĵ": 884,
      "æĽ´åĬł": 885,
      "å¥¹": 886,
      "ç¤º": 887,
      "èĲ½": 888,
      "çĴ°å¢ĥ": 889,
      "æºĲ": 890,
      "ä¸»è¦ģ": 891,
      "åĲĦ": 892,
      "å¡": 893,
      "åĵ¡": 894,
      "æĵĩ": 895,
      "éĹľéįµ": 896,
      "ç²": 897,
      "æĩīè©²": 898,
      "æĮĩ": 899,
      "éģ¸æĵĩ": 900,
      "èĥ½å¤ł": 901,
      "åĲĮæĻĤ": 902,
      "éĢł": 903,
      "åīµ": 904,
      "æ¼Ķ": 905,
      "æĸ¹å¼ı": 906,
      "åĲĳ": 907,
      "è¿ĳ": 908,
      "èĸ": 909,
      "åħī": 910,
      "çµĦ": 911,
      "åħ§å®¹": 912,
      "ç¯ĩæĸĩç«ł": 913,
      "äººåĢĳ": 914,
      "ç½": 915,
      "æĦĽ": 916,
      "æī¾": 917,
      "ç©¶": 918,
      "çķĮ": 919,
      "èªŀè¨Ģ": 920,
      "èª¿": 921,
      "å½¢": 922,
      "åĳĬ": 923,
      "ç´ħ": 924,
      "ï¼Ľ": 925,
      "åĤ³": 926,
      "ç©º": 927,
      "æĺ¯ä¸ĢåĢĭ": 928,
      "èĢĥ": 929,
      "éĹľæĸ¼": 930,
      "è¦ĸ": 931,
      "æľªä¾Ĩ": 932,
      "ç«ĭ": 933,
      "èĬ±": 934,
      "åı£": 935,
      "ä¾ĭå¦Ĥ": 936,
      "æ½": 937,
      "é©Ĺ": 938,
      "éłĲ": 939,
      "åİŁ": 940,
      "è¨Īç®Ĺ": 941,
      "çĹħ": 942,
      "çº": 943,
      "æĸ¹æ³ķ": 944,
      "æĸ¹éĿ¢": 945,
      "ï¼ī": 946,
      "é¤Ĳ": 947,
      "æĢĿ": 948,
      "Ķç©¶": 949,
      "ä¸Ķ": 950,
      "éĮ¯": 951,
      "ç±": 952,
      "å®Į": 953,
      "åĹİ": 954,
      "èĭ": 955,
      "é¦ĸ": 956,
      "åĪ°äºĨ": 957,
      "è¨±": 958,
      "åħ¶ä»ĸ": 959,
      "ç®¡": 960,
      "åĳ³": 961,
      "ä¸»é¡Į": 962,
      "è¶Ĭ": 963,
      "è©ķ": 964,
      "ä»¥åıĬ": 965,
      "çļĦæĻ": 966,
      "å»£": 967,
      "éĩĳ": 968,
      "è¦º": 969,
      "æ©ŁåĻ¨": 970,
      "ç´ł": 971,
      "å¼ķ": 972,
      "æ¢": 973,
      "æģ": 974,
      "åĪĹ": 975,
      "è¼ķ": 976,
      "å¿«": 977,
      "çħ": 978,
      "åħĪ": 979,
      "æ¸¬": 980,
      "åŁİ": 981,
      "åĬŁ": 982,
      "æ¸ħ": 983,
      "æĪ°": 984,
      "å®¢": 985,
      "åĿ": 986,
      "è®Ģ": 987,
      "æĳ": 988,
      "ï¼Ī": 989,
      "åĢĭäºº": 990,
      "åĪĨé¡ŀ": 991,
      "éĻ½": 992,
      "æºĸ": 993,
      "å§ĭ": 994,
      "åŁº": 995,
      "ä»Ĭ": 996,
      "çļĦæķ": 997,
      "åĥ¹": 998,
      "æĩīçĶ¨": 999,
      "è¾": 1000,
      "éĺ": 1001,
      "æħĭ": 1002,
      "çºĮ": 1003,
      "å¹¾": 1004,
      "æº«": 1005,
      "æķĻ": 1006,
      "æŀĲ": 1007,
      "åĢĻ": 1008,
      "åįĢ": 1009,
      "æĽ¸": 1010,
      "çŁŃ": 1011,
      "æŃ·": 1012,
      "ï¼ģ": 1013,
      "æľĭ": 1014,
      "åĵª": 1015,
      "è¥": 1016,
      "åħ±": 1017,
      "ä¸ĸçķĮ": 1018,
      "ä½Ĩæĺ¯": 1019,
      "åŃĺ": 1020,
      "ç´Ħ": 1021,
      "åĲ«": 1022,
      "è¨Ńè¨Ī": 1023,
      "è£½": 1024,
      "åħĥ": 1025,
      "æĹħ": 1026,
      "éĬ": 1027,
      "åķĨ": 1028,
      "æľĪ": 1029,
      "åıª": 1030,
      "çļĦå½": 1031,
      "ç´°": 1032,
      "æľĭåıĭ": 1033,
      "ç·ļ": 1034,
      "èĻķçĲĨ": 1035,
      "å°Ī": 1036,
      "è£Ŀ": 1037,
      "åħĭ": 1038,
      "æĸĩåĮĸ": 1039,
      "å»ºèŃ°": 1040,
      "åĪĨæŀĲ": 1041,
      "åı²": 1042,
      "çİĩ": 1043,
      "ä¸Ģä¸ĭ": 1044,
      "æ»¿": 1045,
      "æĶ¯": 1046,
      "æ¸Ľå°ĳ": 1047,
      "æķ´": 1048,
      "ä¸Ńåľĭ": 1049,
      "éĢĻç¯ĩæĸĩç«ł": 1050,
      "ä¹ĭä¸Ģ": 1051,
      "éŃ": 1052,
      "çīĩ": 1053,
      "è¶³": 1054,
      "çļĦæĥ": 1055,
      "èĩ´": 1056,
      "é¬": 1057,
      "åīĩ": 1058,
      "æ³ģ": 1059,
      "ä¿ĿèŃ·": 1060,
      "ç©į": 1061,
      "åĲ¦": 1062,
      "ç¬¬": 1063,
      "æİ¢": 1064,
      "çłĶç©¶": 1065,
      "å½±éŁ¿": 1066,
      "å·²ç¶ĵ": 1067,
      "è¨±å¤ļ": 1068,
      "ĺè¦ģ": 1069,
      "é£²": 1070,
      "è§Ĵ": 1071,
      "ç¥ŀ": 1072,
      "çĶ¢åĵģ": 1073,
      "èıľ": 1074,
      "20": 1075,
      "æ£": 1076,
      "åħ©åĢĭ": 1077,
      "æľĽ": 1078,
      "ç³»çµ±": 1079,
      "è¬Ŀ": 1080,
      "çļĦåķ": 1081,
      "ç³ĸ": 1082,
      "æĲ": 1083,
      "è¼¸": 1084,
      "è¦ı": 1085,
      "åıį": 1086,
      "äºĨä¸Ģ": 1087,
      "ç¨ĭå¼ı": 1088,
      "èĢģ": 1089,
      "éļª": 1090,
      "æİ¥": 1091,
      "éĨ«çĻĤ": 1092,
      "æŃ¤å¤ĸ": 1093,
      "ä»ĭ": 1094,
      "è±¡": 1095,
      "åĬĥ": 1096,
      "ç¦": 1097,
      "çĭĹ": 1098,
      "çĻ½": 1099,
      "æĽ´å¤ļ": 1100,
      "çļĦäºº": 1101,
      "éĢŁ": 1102,
      "åĽŀçŃĶ": 1103,
      "æİ¡": 1104,
      "è¶£": 1105,
      "åł±": 1106,
      "çĥ": 1107,
      "æĺ¯ä¸Ģç¨®": 1108,
      "èĥ": 1109,
      "çľŁ": 1110,
      "åĲĥ": 1111,
      "ä¿ĿæĮģ": 1112,
      "ä»½": 1113,
      "éĩĭ": 1114,
      "åħ¨çĲĥ": 1115,
      "éłŃ": 1116,
      "æĸ¯": 1117,
      "æĪĲçĤº": 1118,
      "è§£æ±º": 1119,
      "ä¿¡": 1120,
      "çĽ´": 1121,
      "æĺĵ": 1122,
      "Â·": 1123,
      "æİĴ": 1124,
      "çĨ±": 1125,
      "éłħ": 1126,
      "è¥¿": 1127,
      "æ´»åĭķ": 1128,
      "åĢ¼": 1129,
      "æľįåĭĻ": 1130,
      "æĸ½": 1131,
      "åıĥ": 1132,
      "ħäºĭ": 1133,
      "ç¤¾æľĥ": 1134,
      "éĽ£": 1135,
      "åĨį": 1136,
      "å±±": 1137,
      "è²·": 1138,
      "æ§ĭ": 1139,
      "è¼ĥ": 1140,
      "åĺ": 1141,
      "éļĽ": 1142,
      "è¦ĭ": 1143,
      "éģĭåĭķ": 1144,
      "æħ®": 1145,
      "çĻ¼çı¾": 1146,
      "çļĦä¸Ģ": 1147,
      "åĶ": 1148,
      "åĥı": 1149,
      "åħħ": 1150,
      "æª": 1151,
      "èģ½": 1152,
      "ä¾¿": 1153,
      "æĪĸèĢħ": 1154,
      "çļĦæĦ": 1155,
      "èº«é«Ķ": 1156,
      "å¸«": 1157,
      "éļ¨": 1158,
      "å®īåħ¨": 1159,
      "10": 1160,
      "è©©": 1161,
      "çµ¦æĪĳ": 1162,
      "è®ĬåĮĸ": 1163,
      "èĩ³": 1164,
      "ç½®": 1165,
      "åį³": 1166,
      "åħ¶ä¸Ń": 1167,
      "çļĦæĥħ": 1168,
      "è¨ĺ": 1169,
      "å°ĭ": 1170,
      "éħį": 1171,
      "çı¾åľ¨": 1172,
      "è²ĵ": 1173,
      "çį²": 1174,
      "çĭĢ": 1175,
      "ãĢĤâĢĿ": 1176,
      "ä¹ĭéĸĵ": 1177,
      "æ¢Ŀ": 1178,
      "èªįçĤº": 1179,
      "åŁİå¸Ĥ": 1180,
      "éºĹ": 1181,
      "å¼µ": 1182,
      "ç·¨": 1183,
      "æĶ¶": 1184,
      "å¤©æ°£": 1185,
      "æĪ¶": 1186,
      "çļĦå½±": 1187,
      "éĤ£éº¼": 1188,
      "ç·´": 1189,
      "èĤ²": 1190,
      "çĽ¸éĹľ": 1191,
      "èĨ": 1192,
      "äº«": 1193,
      "æĬĬ": 1194,
      "å¸¶ä¾Ĩ": 1195,
      "ç²¾": 1196,
      "èĦ": 1197,
      "èĺĭ": 1198,
      "åĤĻ": 1199,
      "çĴ°ä¿Ŀ": 1200,
      "éļĬ": 1201,
      "èĥ½åĬĽ": 1202,
      "èĺĭæŀľ": 1203,
      "äºĮ": 1204,
      "åľĴ": 1205,
      "æĶ¿": 1206,
      "åĲ¸": 1207,
      "éĸĢ": 1208,
      "å¾Īå¤ļ": 1209,
      "åı¤": 1210,
      "çŃĸ": 1211,
      "è¤": 1212,
      "è³¼": 1213,
      "èĪĪ": 1214,
      "ç¶Ń": 1215,
      "å¥³": 1216,
      "çŀ": 1217,
      "æĳĺè¦ģ": 1218,
      "åħ·æľī": 1219,
      "èģŀ": 1220,
      "åĭķçī©": 1221,
      "åĳ½": 1222,
      "ç¨±": 1223,
      "ä½İ": 1224,
      "å¤±": 1225,
      "èĩªå·±çļĦ": 1226,
      "æŁ¥": 1227,
      "ç¶²è·¯": 1228,
      "æ¬¾": 1229,
      "çį¨": 1230,
      "æ²»": 1231,
      "æ¤": 1232,
      "è½": 1233,
      "çĳ": 1234,
      "éŁ³æ¨Ĥ": 1235,
      "éĸĭå§ĭ": 1236,
      "è¨´": 1237,
      "çļĦåķı": 1238,
      "æŃĮ": 1239,
      "åħį": 1240,
      "çļĦå½±éŁ¿": 1241,
      "èĸ¦": 1242,
      "çµ¦åĩº": 1243,
      "å°įæĸ¼": 1244,
      "éĢĻç¨®": 1245,
      "é§": 1246,
      "çļĦæĻĤ": 1247,
      "åĦª": 1248,
      "çŃĶæ¡Ī": 1249,
      "ç´¹": 1250,
      "æīį": 1251,
      "ç§ĳæĬĢ": 1252,
      "ä»ĭç´¹": 1253,
      "æ¶Ī": 1254,
      "å°İèĩ´": 1255,
      "ä»»åĭĻ": 1256,
      "èį": 1257,
      "åı¥è©±": 1258,
      "çļĦåķıé¡Į": 1259,
      "åħ·é«Ķ": 1260,
      "èª¤": 1261,
      "ä¸ŃæıĲåıĸ": 1262,
      "è¡¨éģĶ": 1263,
      "æĽ´å¥½": 1264,
      "åŃ£": 1265,
      "æ¨¡åŀĭ": 1266,
      "è¨Īç®Ĺæ©Ł": 1267,
      "çļĦæĸĩåŃĹ": 1268,
      "å¯Į": 1269,
      "è½ī": 1270,
      "èµ": 1271,
      "èĭ±": 1272,
      "çĶ·": 1273,
      "èĽ": 1274,
      "æĥħæĦŁ": 1275,
      "æİ¨èĸ¦": 1276,
      "éĽĨ": 1277,
      "è³½": 1278,
      "çĲĨè§£": 1279,
      "èģ¯": 1280,
      "èĮ": 1281,
      "è¨İ": 1282,
      "æīĵ": 1283,
      "çļĦæĩī": 1284,
      "èĻŁ": 1285,
      "éĻ¤": 1286,
      "ç©įæ¥µ": 1287,
      "æľĢè¿ĳ": 1288,
      "æĺ¯åĲ¦": 1289,
      "åĭ¢": 1290,
      "ä¸įæĸ·": 1291,
      "éĢļå¸¸": 1292,
      "è²»": 1293,
      "å¯¦çı¾": 1294,
      "åĲĦç¨®": 1295,
      "è¬Ľ": 1296,
      "é¦Ļ": 1297,
      "æĪĳåĢĳçļĦ": 1298,
      "èŀ": 1299,
      "çŀŃ": 1300,
      "ç§ĳåŃ¸": 1301,
      "ä»Ĭå¤©": 1302,
      "æ©ŁåĻ¨åŃ¸ç¿Ĵ": 1303,
      "èĤī": 1304,
      "éĬ·": 1305,
      "è¨ĪåĬĥ": 1306,
      "æĪ²": 1307,
      "ä¿®": 1308,
      "èı¯": 1309,
      "çļĦæĩīçĶ¨": 1310,
      "èŃī": 1311,
      "æ°ĳ": 1312,
      "ä½¿çĶ¨èĢħ": 1313,
      "åľ°çĲĥ": 1314,
      "å¿ħ": 1315,
      "æĿİ": 1316,
      "åĳĬè¨´": 1317,
      "å§": 1318,
      "é¤Ĭ": 1319,
      "éĹľéįµè©ŀ": 1320,
      "æĿĲ": 1321,
      "åįĩ": 1322,
      "åľį": 1323,
      "èĹĿ": 1324,
      "æŁĵ": 1325,
      "åĮĹ": 1326,
      "é¦¬": 1327,
      "æĴ": 1328,
      "éĽ¢": 1329,
      "çµĤ": 1330,
      "åļ": 1331,
      "æīĢæľī": 1332,
      "ä¸Ģæ®µ": 1333,
      "éĲ": 1334,
      "æīĢä»¥": 1335,
      "æİ§": 1336,
      "éļ»": 1337,
      "çª": 1338,
      "èĶ": 1339,
      "æı´": 1340,
      "åįģ": 1341,
      "èŃĺåĪ¥": 1342,
      "æ³¨æĦı": 1343,
      "éģ©åĲĪ": 1344,
      "æĻļ": 1345,
      "ä¿Ĥ": 1346,
      "åª": 1347,
      "é»ĳ": 1348,
      "ä¸¦ä¸Ķ": 1349,
      "åĸĦ": 1350,
      "å¤ı": 1351,
      "æĸ°èģŀ": 1352,
      "ä¸Ģèµ·": 1353,
      "åľĸ": 1354,
      "å£ĵ": 1355,
      "æĪĳåĢĳåı¯ä»¥": 1356,
      "éģł": 1357,
      "æŃ£åľ¨": 1358,
      "éĺ²": 1359,
      "çļĦå»": 1360,
      "AI": 1361,
      "ç´¢": 1362,
      "ä¸Ģç¨®": 1363,
      "å¤ªéĻ½": 1364,
      "å¾ĭ": 1365,
      "é¬Ĩ": 1366,
      "çĦ¡æ³ķ": 1367,
      "çĩŁ": 1368,
      "æ¯Ķå¦Ĥ": 1369,
      "çļĦæĬ": 1370,
      "è¶ħ": 1371,
      "æĺ¯ä»Ģéº¼": 1372,
      "ç¾İåľĭ": 1373,
      "æŀĹ": 1374,
      "åŃ©": 1375,
      "éĹľä¿Ĥ": 1376,
      "è¦ģæ±Ĥ": 1377,
      "çŁ¥éģĵ": 1378,
      "çļĦæŃ": 1379,
      "åĥħ": 1380,
      "å·§": 1381,
      "è²ł": 1382,
      "éģİç¨ĭ": 1383,
      "æĦŁåĪ°": 1384,
      "çĦ¶å¾Į": 1385,
      "å¨": 1386,
      "å°ıèªª": 1387,
      "åŃ¸çĶŁ": 1388,
      "å»ºç«ĭ": 1389,
      "èµ°": 1390,
      "çĪ¾": 1391,
      "åŃĺåľ¨": 1392,
      "èģ·": 1393,
      "æ¯ıåĢĭ": 1394,
      "éĤĬ": 1395,
      "æ³Ľ": 1396,
      "èģ²": 1397,
      "æŁĲ": 1398,
      "åı¦": 1399,
      "èĢĥæħ®": 1400,
      "çĿ": 1401,
      "è§£éĩĭ": 1402,
      "ï¼ļâĢľ": 1403,
      "å»³": 1404,
      "å¸Į": 1405,
      "çķ«": 1406,
      "ĳæĪ°": 1407,
      "é¡¯": 1408,
      "è³ªéĩı": 1409,
      "è¡ĮçĤº": 1410,
      "ç¸½çµĲ": 1411,
      "å£«": 1412,
      "å¾·": 1413,
      "æĪĲåĬŁ": 1414,
      "æĭī": 1415,
      "çļĦæ°": 1416,
      "åĺĹ": 1417,
      "å¸Ĥåł´": 1418,
      "éĻį": 1419,
      "çļĦæĺ¯": 1420,
      "èĽĭ": 1421,
      "æĩ": 1422,
      "çļĦæĹ": 1423,
      "æĪ¿": 1424,
      "åįĹ": 1425,
      "éģĬæĪ²": 1426,
      "çŃīçŃī": 1427,
      "ªæĸ½": 1428,
      "éĮ¯èª¤": 1429,
      "éĨ«çĶŁ": 1430,
      "åĽĽ": 1431,
      "è¼¯": 1432,
      "æ®µèĲ½": 1433,
      "æĪĳæĥ³": 1434,
      "å°įè©±": 1435,
      "ä¸Ģç¯ĩ": 1436,
      "ä¼¼": 1437,
      "åĳ¢": 1438,
      "äºĶ": 1439,
      "çħ§": 1440,
      "çļĦçĻ¼å±ķ": 1441,
      "ä½ľçĤº": 1442,
      "å®ĮæĪĲ": 1443,
      "åĺĹè©¦": 1444,
      "æľĢå¾Į": 1445,
      "é³": 1446,
      "å³": 1447,
      "æĵģ": 1448,
      "éĢĻæ®µ": 1449,
      "ä¸ĭéĿ¢": 1450,
      "èĩªåĭķ": 1451,
      "çļĦåľ°": 1452,
      "åĪ©çĶ¨": 1453,
      "æ¿Ł": 1454,
      "é£²é£Ł": 1455,
      "ä½łçļĦ": 1456,
      "çģ«": 1457,
      "ç±³": 1458,
      "è¨ĵ": 1459,
      "ç¢ºä¿Ŀ": 1460,
      "çļĦè³ĩè¨Ĭ": 1461,
      "æļĸ": 1462,
      "çļĦå¹": 1463,
      "ç®¡çĲĨ": 1464,
      "åĦĺ": 1465,
      "åĴĸ": 1466,
      "éģ¿": 1467,
      "çķ¶çĦ¶": 1468,
      "æĨ": 1469,
      "åı¯èĥ½æľĥ": 1470,
      "é£Łçī©": 1471,
      "æ¹": 1472,
      "äºŀ": 1473,
      "å®³": 1474,
      "çĶ¢çĶŁ": 1475,
      "å¾ĹåĪ°": 1476,
      "æŃ·åı²": 1477,
      "çļĦåŁ": 1478,
      "æĽ´å¥½åľ°": 1479,
      "çİĭ": 1480,
      "å»£æ³Ľ": 1481,
      "æ°£åĢĻ": 1482,
      "æ¦Ĥ": 1483,
      "ä¼ģ": 1484,
      "çİ©": 1485,
      "çį²å¾Ĺ": 1486,
      "ç¶ĵæ¿Ł": 1487,
      "æĥħæ³ģ": 1488,
      "å¿µ": 1489,
      "ãĢĤ\\": 1490,
      "ä»»ä½ķ": 1491,
      "å¢ŀåĬł": 1492,
      "èŀį": 1493,
      "éĤĦæľī": 1494,
      "è¤ĩ": 1495,
      "ç®Ĺæ³ķ": 1496,
      "èİ": 1497,
      "æ¨Ļé¡Į": 1498,
      "æıĽ": 1499,
      "åķ¡": 1500,
      "äº¬": 1501,
      "ä¸įæĺ¯": 1502,
      "æ½Ķ": 1503,
      "åĴĸåķ¡": 1504,
      "çĽ®æ¨Ļ": 1505,
      "ä½³": 1506,
      "å®¤": 1507,
      "æª¢": 1508,
      "æķħäºĭ": 1509,
      "èįī": 1510,
      "å¯Ĩ": 1511,
      "éĽ¨": 1512,
      "äº¤éĢļ": 1513,
      "è¼¸åħ¥": 1514,
      "åħĴ": 1515,
      "çļĦåı¥åŃĲ": 1516,
      "æĢİ": 1517,
      "å·´": 1518,
      "éĢĻæ¨£": 1519,
      "æĹ©": 1520,
      "è¡¨ç¤º": 1521,
      "çĶ¨æĸ¼": 1522,
      "éĢ±": 1523,
      "éĻĲ": 1524,
      "çľ¾": 1525,
      "é»ĥ": 1526,
      "ç¾¤": 1527,
      "ä»ĸçļĦ": 1528,
      "èĩº": 1529,
      "åı¯ä»¥å¹«åĬ©": 1530,
      "é£Ľ": 1531,
      "çĶŁæĪĲä¸ĢåĢĭ": 1532,
      "äºĴ": 1533,
      "å¸ĮæľĽ": 1534,
      "é¦ĸåħĪ": 1535,
      "åľĺ": 1536,
      "è¡£": 1537,
      "éħĴ": 1538,
      "çļĦå¯": 1539,
      "é¤Ĳå»³": 1540,
      "éĸ±": 1541,
      "éĥ½æĺ¯": 1542,
      "çļĦä¸»è¦ģ": 1543,
      "ç³ĸæŀľ": 1544,
      "çļĦæĸĩç«ł": 1545,
      "çµĲæŀľ": 1546,
      "æľīæķĪ": 1547,
      "ä½łåı¯ä»¥": 1548,
      "çļĦå»º": 1549,
      "çīĽ": 1550,
      "åĮħåĲ«": 1551,
      "æĿ±": 1552,
      "ç©¿": 1553,
      "å¾Ģ": 1554,
      "æķĻèĤ²": 1555,
      "æĸ°çļĦ": 1556,
      "æī¾åĪ°": 1557,
      "éĩĮ": 1558,
      "æĪĳçļĦ": 1559,
      "çŀŃè§£": 1560,
      "åºŃ": 1561,
      "ĻæŁĵ": 1562,
      "çļĦéĩįè¦ģ": 1563,
      "å±¬": 1564,
      "å¾µ": 1565,
      "éľĢæ±Ĥ": 1566,
      "æĮģçºĮ": 1567,
      "åĳĬè¨´æĪĳ": 1568,
      "éĥ¨åĪĨ": 1569,
      "æľīéĹľ": 1570,
      "ä»¤": 1571,
      "æİ¡åıĸ": 1572,
      "è§Ģé»ŀ": 1573,
      "ä½¿åħ¶": 1574,
      "åºĹ": 1575,
      "éģ¿åħį": 1576,
      "é«Ķé©Ĺ": 1577,
      "ä¼ģæ¥Ń": 1578,
      "æİªæĸ½": 1579,
      "èµ·ä¾Ĩ": 1580,
      "äºĨä¸ĢåĢĭ": 1581,
      "çīĮ": 1582,
      "è¡¨çı¾": 1583,
      "åĿĩ": 1584,
      "ä¹Łæĺ¯": 1585,
      "åĬĩ": 1586,
      "å¾®": 1587,
      "æģ¯": 1588,
      "çļĦå¥": 1589,
      "ç¶ł": 1590,
      "èĲ¬": 1591,
      "æĶ¯æı´": 1592,
      "æ¼Ķç®Ĺæ³ķ": 1593,
      "èĥ½æºĲ": 1594,
      "ç°¡åĸ®": 1595,
      "çĪŃ": 1596,
      "è£½ä½ľ": 1597,
      "éºµ": 1598,
      "æ¨¹": 1599,
      "éŃļ": 1600,
      "çĻ¼çĶŁ": 1601,
      "çı¾ä»£": 1602,
      "ä½ľçĶ¨": 1603,
      "éĢ£": 1604,
      "çĶ±æĸ¼": 1605,
      "ç«Ļ": 1606,
      "éĸ±è®Ģ": 1607,
      "ä¸įèĥ½": 1608,
      "çĽĬ": 1609,
      "æ¿Ģ": 1610,
      "é¼": 1611,
      "èĩªçĦ¶èªŀè¨Ģ": 1612,
      "ä¹Łåı¯ä»¥": 1613,
      "00": 1614,
      "æĵģæľī": 1615,
      "ä¸īåĢĭ": 1616,
      "èī¯": 1617,
      "å°ıç´ħ": 1618,
      "æ¤į": 1619,
      "éĹľæ³¨": 1620,
      "æĹħéģĬ": 1621,
      "åĪĩ": 1622,
      "æ²¹": 1623,
      "¾çĹħ": 1624,
      "æķ£": 1625,
      "ç¹Ķ": 1626,
      "å¤ľ": 1627,
      "å¾ħ": 1628,
      "åĪ¤": 1629,
      "éĤĦæĺ¯": 1630,
      "èĪī": 1631,
      "åŁºæĸ¼": 1632,
      "å®¢æĪ¶": 1633,
      "âĢĿï¼Į": 1634,
      "è±Ĳ": 1635,
      "å±ħ": 1636,
      "è¨º": 1637,
      "è³ĩæºĲ": 1638,
      "åĬłåħ¥": 1639,
      "æĮĳæĪ°": 1640,
      "å¦": 1641,
      "é¡ı": 1642,
      "çļĦæİ": 1643,
      "åĵªäºĽ": 1644,
      "é¤¨": 1645,
      "æ±ĻæŁĵ": 1646,
      "ç¤¾äº¤": 1647,
      "å¦Ĥæŀľä½ł": 1648,
      "åıĪ": 1649,
      "çļĦæ¨": 1650,
      "éģĩ": 1651,
      "ç¢ºå®ļ": 1652,
      "éĿľ": 1653,
      "åĬª": 1654,
      "èĹ¥": 1655,
      "ï¼Ł<|": 1656,
      "åºľ": 1657,
      "éĽŀ": 1658,
      "è»Ł": 1659,
      "è¨ĵç·´": 1660,
      "çĤºäºĨ": 1661,
      "åĸ®è©ŀ": 1662,
      "é®": 1663,
      "ä»¥ä¸ĭåı¥åŃĲ": 1664,
      "èħ¦": 1665,
      "åĪ»": 1666,
      "å®¶åºŃ": 1667,
      "æĺ¥": 1668,
      "å¾ŀèĢĮ": 1669,
      "éĽĸ": 1670,
      "è§Ĵèī²": 1671,
      "åĬªåĬĽ": 1672,
      "å¹¾åĢĭ": 1673,
      "æİ§åĪ¶": 1674,
      "æŃ£ç¢º": 1675,
      "ç¿»": 1676,
      "èĪĴ": 1677,
      "éĢĻæĺ¯": 1678,
      "æľīè¶£": 1679,
      "æĢ§åĴĮ": 1680,
      "èĹĿè¡ĵ": 1681,
      "è¿½": 1682,
      "åĬŁèĥ½": 1683,
      "é³¥": 1684,
      "æ²»çĻĤ": 1685,
      "çļĦæĬĢ": 1686,
      "æł¹æĵļçµ¦å®ļ": 1687,
      "åıĹåĪ°": 1688,
      "æĸ¹æ¡Ī": 1689,
      "ä¸įåĲĮçļĦ": 1690,
      "éĽľ": 1691,
      "æĬķ": 1692,
      "å¡Ĭ": 1693,
      "éłĲæ¸¬": 1694,
      "åĶ®": 1695,
      "å¯¶": 1696,
      "æ¯Ķè¼ĥ": 1697,
      "å±¤": 1698,
      "æĤ¨åı¯ä»¥": 1699,
      "åħ¸": 1700,
      "çĸ¾çĹħ": 1701,
      "æĹħè¡Į": 1702,
      "è©¢": 1703,
      "¼º": 1704,
      "è©³": 1705,
      "æ²Ļ": 1706,
      "å¤§çļĦ": 1707,
      "çļĦæĶ": 1708,
      "å¥ĩ": 1709,
      "äººå·¥æĻºæħ§æĬĢè¡ĵ": 1710,
      "æľĢçµĤ": 1711,
      "æķĪçİĩ": 1712,
      "æİ¢ç´¢": 1713,
      "äºĭä»¶": 1714,
      "çļĦå¿": 1715,
      "è³¼è²·": 1716,
      "ä¸įåĥħ": 1717,
      "çŃĨ": 1718,
      "è¸": 1719,
      "æĤ£": 1720,
      "ä¾Ĩè¶Ĭ": 1721,
      "ç§ĭ": 1722,
      "æľĢä½³": 1723,
      "ä»ĸåĢĳçļĦ": 1724,
      "éĽĸçĦ¶": 1725,
      "æĤ¨çļĦ": 1726,
      "éĽ²": 1727,
      "è¶Ĭä¾Ĩè¶Ĭ": 1728,
      "æºĸç¢º": 1729,
      "åļ´": 1730,
      "çĵ": 1731,
      "éļ¨èĳĹ": 1732,
      "ç¾İéºĹ": 1733,
      "çŁ³": 1734,
      "éĻ¢": 1735,
      "é®®": 1736,
      "èĴ": 1737,
      "äººçļĦ": 1738,
      "éĽ»åŃĲ": 1739,
      "æ°£åĢĻè®ĬåĮĸ": 1740,
      "é¢¨éļª": 1741,
      "çĶŁçī©": 1742,
      "èĩ¨": 1743,
      "çĶŁåĳ½": 1744,
      "æį": 1745,
      "æĮī": 1746,
      "æĪĳåĢĳéľĢè¦ģ": 1747,
      "ç¦ı": 1748,
      "ä¾Ĩèªª": 1749,
      "å¤¢": 1750,
      "åĩºçı¾": 1751,
      "éĿĪ": 1752,
      "æ¯Ķè³½": 1753,
      "é¡ıèī²": 1754,
      "æµª": 1755,
      "è±Ĳå¯Į": 1756,
      "æīįèĥ½": 1757,
      "åŀĭåĪ¥": 1758,
      "èĵ": 1759,
      "è©ķè«ĸ": 1760,
      "æŃ¸": 1761,
      "èĳī": 1762,
      "å°±æĺ¯": 1763,
      "åºı": 1764,
      "æĽ²": 1765,
      "æ´ĭ": 1766,
      "çķ¥": 1767,
      "æĢİéº¼": 1768,
      "æ±½": 1769,
      "çĥ¤": 1770,
      "ç¼º": 1771,
      "ä¸Ģä½į": 1772,
      "è·ĳ": 1773,
      "ç·¨è¼¯": 1774,
      "ä¸Ģä»½": 1775,
      "èĹį": 1776,
      "éĩįè¦ģçļĦ": 1777,
      "è©³ç´°": 1778,
      "ä»¥ä¸ĭæĸĩåŃĹ": 1779,
      "åģĩ": 1780,
      "æĻ®": 1781,
      "èĩªçĦ¶èªŀè¨ĢèĻķçĲĨ": 1782,
      "æĶ¿åºľ": 1783,
      "åªĴ": 1784,
      "çĶŁæħĭ": 1785,
      "è¦ª": 1786,
      "æĶ¹è®Ĭ": 1787,
      "æł¡": 1788,
      "æ°´æŀľ": 1789,
      "æĵ¬": 1790,
      "ç¯Ħ": 1791,
      "çļĦå»ºèŃ°": 1792,
      "çµĦç¹Ķ": 1793,
      "è¾¦": 1794,
      "è¡¨æĺİ": 1795,
      "èªŀæ³ķ": 1796,
      "éĤĦåı¯ä»¥": 1797,
      "å¥¶": 1798,
      "çļĦéĽ»å½±": 1799,
      "å¤ļå°ĳ": 1800,
      "ä½ľèĢħ": 1801,
      "è¨ºæĸ·": 1802,
      "åħ¬åľĴ": 1803,
      "æĸĩæ¡Ī": 1804,
      "ç¾İé£Ł": 1805,
      "ç´ļ": 1806,
      "ç¢¼": 1807,
      "çĻ¾": 1808,
      "åłħ": 1809,
      "å¾©": 1810,
      "è£Ŀç½®": 1811,
      "çĤºä»Ģéº¼": 1812,
      "çµĲæ§ĭ": 1813,
      "è¡Įåĭķ": 1814,
      "çĽ£": 1815,
      "çĬ": 1816,
      "çĶŁçĶ¢": 1817,
      "éĢĻæ®µæĸĩåŃĹ": 1818,
      "æĹı": 1819,
      "åĤ³çµ±": 1820,
      "è«ĭåķı": 1821,
      "é¡ĮçĽ®": 1822,
      "é¡Ĩ": 1823,
      "åĲįç¨±": 1824,
      "å½©": 1825,
      "ä½ı": 1826,
      "çķ¶åľ°": 1827,
      "é¢¨æł¼": 1828,
      "ä¿ĥ": 1829,
      "çļĦæĥħæĦŁ": 1830,
      "çķ°": 1831,
      "éı": 1832,
      "ç¶ĵé©Ĺ": 1833,
      "åį¡": 1834,
      "çļĦæĦı": 1835,
      "è®Ĭå¾Ĺ": 1836,
      "åľ¨éĢĻåĢĭ": 1837,
      "çķĻ": 1838,
      "çī¹å¾µ": 1839,
      "å°ĭæī¾": 1840,
      "çªģ": 1841,
      "ç¾ħ": 1842,
      "ç·©": 1843,
      "åīµéĢł": 1844,
      "è¿İ": 1845,
      "èĥĮ": 1846,
      "åªĴé«Ķ": 1847,
      "çĽ¡": 1848,
      "åħħæ»¿": 1849,
      "è¡Įæ¥Ń": 1850,
      "çļĦæĸ¹æ³ķ": 1851,
      "è²¬": 1852,
      "çļĦåģ": 1853,
      "å£ĵåĬĽ": 1854,
      "æ³¢": 1855,
      "çĸ«": 1856,
      "äº®": 1857,
      "åĳ¼": 1858,
      "é£Łåĵģ": 1859,
      "éĸĭçĻ¼": 1860,
      "è¨İè«ĸ": 1861,
      "æºĸåĤĻ": 1862,
      "äº«åıĹ": 1863,
      "å¤§éĩı": 1864,
      "èī²çļĦ": 1865,
      "å¦ĤæŀľæĤ¨": 1866,
      "è¡¡": 1867,
      "åıĥåĬł": 1868,
      "å°¼": 1869,
      "éĿĴ": 1870,
      "æľ¨": 1871,
      "ç¬¦": 1872,
      "è²łéĿ¢": 1873,
      "çļ®": 1874,
      "æ´²": 1875,
      "åĩºäºĨ": 1876,
      "èĳĹåĲį": 1877,
      "æ¯ıåĢĭäºº": 1878,
      "èŃ¯": 1879,
      "ç·Ĭ": 1880,
      "åĲ§": 1881,
      "ä¸Ģå®ļ": 1882,
      "éłĪ": 1883,
      "âĢĿãĢĤ": 1884,
      "ĥåľ": 1885,
      "éĥ¨éĽ»å½±": 1886,
      "æ¯į": 1887,
      "çļĦåĸ": 1888,
      "ĥåľ¾": 1889,
      "ä¸Ńå¿ĥ": 1890,
      "æ¯ıå¤©": 1891,
      "å°Īæ¥Ń": 1892,
      "æ±½è»Ĭ": 1893,
      "èĪĪè¶£": 1894,
      "å·¥åħ·": 1895,
      "åĽ°": 1896,
      "ĊĊ": 1897,
      "éĲĺ": 1898,
      "åĨ°": 1899,
      "ãĢĤ\"": 1900,
      "çģĺ": 1901,
      "çļĦæī": 1902,
      "ä¸ĢæŃ¥": 1903,
      "èľ": 1904,
      "ä¹ĭéĸĵçļĦ": 1905,
      "çļĦåį": 1906,
      "èĶ¬": 1907,
      "ä½ľåĵģ": 1908,
      "çļĦæ©": 1909,
      "æ¬Ĭ": 1910,
      "æĿ¯": 1911,
      "ä»į": 1912,
      "æĶ¹åĸĦ": 1913,
      "éĥµ": 1914,
      "çŁ¥èŃĺ": 1915,
      "çļĦåĭ": 1916,
      "éĢĻåĢĭåķıé¡Į": 1917,
      "æīĭæ©Ł": 1918,
      "æĪĳæľĥ": 1919,
      "ç¯ī": 1920,
      "åľŁ": 1921,
      "è¬Ľè¿°": 1922,
      "å°Īæ¡Ī": 1923,
      "é¾": 1924,
      "éĢĻåı¥è©±": 1925,
      "æĽ¿": 1926,
      "çļĦæķħäºĭ": 1927,
      "èĪĴéģ©": 1928,
      "ä¸ĬçļĦ": 1929,
      "éįĬ": 1930,
      "åĮĹäº¬": 1931,
      "å¹«æĪĳ": 1932,
      "è»į": 1933,
      "éĩİ": 1934,
      "çľł": 1935,
      "ä¸ĢçĽ´": 1936,
      "è¶¨": 1937,
      "æĶ¾é¬Ĩ": 1938,
      "åĽłç´ł": 1939,
      "éĺ¿": 1940,
      "æ¼«": 1941,
      "æ·±åº¦": 1942,
      "åŁ·": 1943,
      "èħ³": 1944,
      "éĩįæĸ°": 1945,
      "è¦ºå¾Ĺ": 1946,
      "åŃ©åŃĲ": 1947,
      "æľīä»Ģéº¼": 1948,
      "åº§": 1949,
      "éĢłæĪĲ": 1950,
      "æħ¢": 1951,
      "éĩĳèŀį": 1952,
      "éĢĲ": 1953,
      "å·ŀ": 1954,
      "çļĦæĻĤéĸĵ": 1955,
      "æ¼¸": 1956,
      "åĪ¤æĸ·": 1957,
      "19": 1958,
      "çł´": 1959,
      "ä¼ĳ": 1960,
      "ä»¥ä¸ĭæĺ¯": 1961,
      "åĤ·": 1962,
      "äºĭæĥħ": 1963,
      "åĲ¸å¼ķ": 1964,
      "èģĬ": 1965,
      "èĶ¬èıľ": 1966,
      "éĢģ": 1967,
      "è¹": 1968,
      "åŀĥåľ¾": 1969,
      "å½±åĥı": 1970,
      "æ¤įçī©": 1971,
      "éļ±": 1972,
      "èĢĮä¸Ķ": 1973,
      "æķ¸åŃĹ": 1974,
      "çĿ¡": 1975,
      "çĹĩ": 1976,
      "ä¸ŃæıĲåıĸåĩº": 1977,
      "æĵĬ": 1978,
      "éįĽ": 1979,
      "èŃ¦": 1980,
      "çļĦç§": 1981,
      "é§Ľ": 1982,
      "å¹´è¼ķ": 1983,
      "çļĦåī": 1984,
      "å·®": 1985,
      "å¿ħéłĪ": 1986,
      "åı¦å¤ĸ": 1987,
      "ç´Ģ": 1988,
      "åı¯æĮģçºĮ": 1989,
      "ç¿»èŃ¯": 1990,
      "æŃ¢": 1991,
      "æĪĳåı¯ä»¥": 1992,
      "ç·Ĵ": 1993,
      "çļĦåĽ": 1994,
      "ä¸Ģæ¬¡": 1995,
      "åī©": 1996,
      "çľĭåĪ°": 1997,
      "éĬ·åĶ®": 1998,
      "è²¡": 1999,
      "å°Ĭ": 2000,
      "æİ¡çĶ¨": 2001,
      "è¶¨åĭ¢": 2002,
      "æĸĩç«łä¸Ń": 2003,
      "æ²³": 2004,
      "é©ļ": 2005,
      "åľĺéļĬ": 2006,
      "åĬ©æĸ¼": 2007,
      "çļĦçŁ": 2008,
      "éĮĦ": 2009,
      "ä»¥ä¸Ĭ": 2010,
      "åĥ¹åĢ¼": 2011,
      "ä¸įæľĥ": 2012,
      "çľ¼": 2013,
      "å·¨": 2014,
      "åĭĿ": 2015,
      "åķĨåĵģ": 2016,
      "éĮ¢": 2017,
      "åľ°åįĢ": 2018,
      "è¡Ľ": 2019,
      "é§ķ": 2020,
      "æ°§": 2021,
      "åĳ¨": 2022,
      "å¾Īå¥½": 2023,
      "åįĶ": 2024,
      "æĺ¨": 2025,
      "æ±ºå®ļ": 2026,
      "å°ĩåħ¶": 2027,
      "æĿĲæĸĻ": 2028,
      "çī¹åĪ¥": 2029,
      "åĭµ": 2030,
      "çī¹é»ŀ": 2031,
      "ç°¡æ½Ķ": 2032,
      "åĪ¶å®ļ": 2033,
      "éįĽéįĬ": 2034,
      "è¾²": 2035,
      "å¸ĥ": 2036,
      "åĪĿ": 2037,
      "é¹": 2038,
      "æĶĿ": 2039,
      "é½": 2040,
      "æķ¸åŃ¸": 2041,
      "å±¬æĸ¼": 2042,
      "ç¨ĭå¼ıè¨Ńè¨Ī": 2043,
      "èĩªçĶ±": 2044,
      "åīµæĸ°": 2045,
      "æħ£": 2046,
      "Ġ\"": 2047,
      "çļĦçł": 2048,
      "ä¸Ģéļ»": 2049,
      "çĤºæĤ¨": 2050,
      "å¨ģ": 2051,
      "ä¹¾": 2052,
      "çļĦæº": 2053,
      "èģ·æ¥Ń": 2054,
      "æ¶ī": 2055,
      "ä»£è¡¨": 2056,
      "éĥ½æľī": 2057,
      "ç¶ĵæŃ·": 2058,
      "çĦ¶èĢĮ": 2059,
      "ç§ĺ": 2060,
      "å©": 2061,
      "æĥ³è¦ģ": 2062,
      "åĢ«": 2063,
      "åĬłå¼·": 2064,
      "é¨": 2065,
      "è©ķåĥ¹": 2066,
      "ç«¯": 2067,
      "å¿ĥçĲĨ": 2068,
      "å°ļ": 2069,
      "è¡Ģ": 2070,
      "éĻ½åħī": 2071,
      "æĺ¯åľ¨": 2072,
      "çĽ®åīį": 2073,
      "ä¿ĥéĢ²": 2074,
      "è¤ĩéĽľ": 2075,
      "çĸĳ": 2076,
      "åı¯ä»¥éĢıéģİ": 2077,
      "å®£": 2078,
      "éĢĻè£¡": 2079,
      "æĲŃ": 2080,
      "éĩĿ": 2081,
      "ç§ģ": 2082,
      "åĦĺç®¡": 2083,
      "ä¾Ŀ": 2084,
      "éĻįä½İ": 2085,
      "èĵĭ": 2086,
      "åĲĪä½ľ": 2087,
      "çī©è³ª": 2088,
      "çļĦæ©Ł": 2089,
      "åł±éģĵ": 2090,
      "ç¹¼": 2091,
      "è®ĵæĪĳ": 2092,
      "éĥµä»¶": 2093,
      "çļĦçĶŁæ´»": 2094,
      "æľīåĬ©æĸ¼": 2095,
      "æŃ²": 2096,
      "åĵĪ": 2097,
      "åĬĽåĴĮ": 2098,
      "ä¸įè¦ģ": 2099,
      "çļĦçĴ°": 2100,
      "æĺ¯æĮĩ": 2101,
      "ç²ī": 2102,
      "éĽĻ": 2103,
      "çļĦæĦŁ": 2104,
      "åį»": 2105,
      "æķ¸éĩı": 2106,
      "äººå·¥æĻºæħ§åľ¨": 2107,
      "çµ¡": 2108,
      "ç·¨å¯«": 2109,
      "çļĦä¸»é¡Į": 2110,
      "éłĨ": 2111,
      "ç¤İ": 2112,
      "å°Ħ": 2113,
      "æķ´åĢĭ": 2114,
      "ŀĭ": 2115,
      "ä½łèĥ½": 2116,
      "å¼·èª¿": 2117,
      "çīĪ": 2118,
      "åħ±åĲĮ": 2119,
      "ç¦®": 2120,
      "æ¾": 2121,
      "èķ": 2122,
      "èĻĽ": 2123,
      "åīĽ": 2124,
      "åĨ·": 2125,
      "éĢĻéĥ¨éĽ»å½±": 2126,
      "ä¸ĬæľĢ": 2127,
      "è¬Ŀè¬Ŀ": 2128,
      "çļĦæĮ": 2129,
      "çĦ¦": 2130,
      "éĲµ": 2131,
      "åºķ": 2132,
      "æĹ¨": 2133,
      "éĩįå¯«": 2134,
      "åı«": 2135,
      "æľīå¾Īå¤ļ": 2136,
      "éĨ«åŃ¸": 2137,
      "æľīäºĽ": 2138,
      "åĵģçīĮ": 2139,
      "ä¸ĢåĲį": 2140,
      "èģ¯çµ¡": 2141,
      "ä½¿å¾Ĺ": 2142,
      "å®ĥçļĦ": 2143,
      "èĪŀ": 2144,
      "çļĦæı": 2145,
      "èªªæĺİ": 2146,
      "éģİç¨ĭä¸Ń": 2147,
      "ç£": 2148,
      "ä¸įéĮ¯": 2149,
      "çļĦæ¯": 2150,
      "éĢĻæĺ¯ä¸Ģ": 2151,
      "äº¤æµģ": 2152,
      "æĽ´å¤ļçļĦ": 2153,
      "»åĭķ": 2154,
      "æĬĢèĥ½": 2155,
      "é¡ĺ": 2156,
      "âĢĶ": 2157,
      "æİ¢è¨İ": 2158,
      "æĵĶ": 2159,
      "èĮ¶": 2160,
      "æĤ£èĢħ": 2161,
      "ç¥¨": 2162,
      "é¤ĺ": 2163,
      "å®ĩ": 2164,
      "ä¹³": 2165,
      "æľ¬æĸĩ": 2166,
      "çĮ": 2167,
      "ç«¶": 2168,
      "çį¨çī¹": 2169,
      "å¥Ĺ": 2170,
      "è®ĵäºº": 2171,
      "æĬĢå·§": 2172,
      "å¯Ł": 2173,
      "åį°": 2174,
      "çļĦåĦ": 2175,
      "æ¯Ĵ": 2176,
      "çī¹å®ļ": 2177,
      "è´": 2178,
      "é£¯": 2179,
      "Ġ-": 2180,
      "çŃīæĸ¹éĿ¢": 2181,
      "åĪĨéĲĺ": 2182,
      "æŃ¡è¿İ": 2183,
      "èĢģå¸«": 2184,
      "éĢ²ä¸ĢæŃ¥": 2185,
      "ä»¤äºº": 2186,
      "å¢ŀå¼·": 2187,
      "æĢĿèĢĥ": 2188,
      "èª²": 2189,
      "èªŀéŁ³": 2190,
      "æĸĩåŃ¸": 2191,
      "éĭ": 2192,
      "æĦŁè¦º": 2193,
      "æıĲåĪ°": 2194,
      "æ¯Ľ": 2195,
      "åĢĭèĺĭæŀľ": 2196,
      "ä½įç½®": 2197,
      "çµķ": 2198,
      "çļĦåŁº": 2199,
      "åĸĿ": 2200,
      "çıŃ": 2201,
      "åĥ¹æł¼": 2202,
      "è±Ĩ": 2203,
      "åķĬ": 2204,
      "éĢŁåº¦": 2205,
      "ç¬¬äºĮ": 2206,
      "ç¤¾äº¤åªĴé«Ķ": 2207,
      "æĬ½": 2208,
      "ä»ĺ": 2209,
      "çļĦæĢ": 2210,
      "æ©Ļ": 2211,
      "çģ½": 2212,
      "è¼¸åĩº": 2213,
      "çį»": 2214,
      "ä»¥ä¾¿": 2215,
      "å³°": 2216,
      "è¡ĮæĺŁ": 2217,
      "åł´æĻ¯": 2218,
      "å¹»": 2219,
      "æĦŁè¬Ŀ": 2220,
      "çļĦåĭķ": 2221,
      "åįĪ": 2222,
      "åįĥ": 2223,
      "èĨł": 2224,
      "èģļ": 2225,
      "åŃ¸æł¡": 2226,
      "è·Ł": 2227,
      "çļĦçľ": 2228,
      "çļĦæķ¸": 2229,
      "çļĦæĹħ": 2230,
      "é¾į": 2231,
      "å®¹æĺĵ": 2232,
      "æ©Łæľĥ": 2233,
      "åķŁ": 2234,
      "çļĦæĬĢè¡ĵ": 2235,
      "é§ķé§Ľ": 2236,
      "æŃ£éĿ¢": 2237,
      "æ©ŁåĻ¨äºº": 2238,
      "åıªæľī": 2239,
      "éĢĻä¸Ģ": 2240,
      "çļĦæ°´": 2241,
      "éĢĻæĺ¯ä¸ĢåĢĭ": 2242,
      "æ·±åº¦åŃ¸ç¿Ĵ": 2243,
      "ä½Ī": 2244,
      "çļĦå¿ĥ": 2245,
      "å¡ĳ": 2246,
      "ç¿Ĵæħ£": 2247,
      "ç¹¼çºĮ": 2248,
      "ç¬ĳ": 2249,
      "å¿«éĢŁ": 2250,
      "éĦ": 2251,
      "äººåĵ¡": 2252,
      "ä¹ħ": 2253,
      "çļĦåİ": 2254,
      "æ¶īåıĬ": 2255,
      "ç¶²ç«Ļ": 2256,
      "å¤§åĪ©": 2257,
      "çĥĪ": 2258,
      "èĪ¬": 2259,
      "æ¦Ĥæĭ¬": 2260,
      "æĦıèŃĺ": 2261,
      "µçī©": 2262,
      "çļĦåĵ": 2263,
      "èĪª": 2264,
      "çļĦåģ¥": 2265,
      "æĢ§çļĦ": 2266,
      "åģļåĩº": 2267,
      "çµĦæĪĲ": 2268,
      "ä¸įåı¯": 2269,
      "è®Ĭæļĸ": 2270,
      "éĬĢ": 2271,
      "éģ©çķ¶": 2272,
      "ç¶ĵå¸¸": 2273,
      "æĦıç¾©": 2274,
      "åĲįåŃĹ": 2275,
      "é¼ĵ": 2276,
      "è³¼çī©": 2277,
      "å¤ļç¨®": 2278,
      "çĳª": 2279,
      "å¤ļåĢĭ": 2280,
      "åĿĲ": 2281,
      "èĺŃ": 2282,
      "æĨ¶": 2283,
      "æıĲä¾ĽäºĨ": 2284,
      "æķħ": 2285,
      "è»Łé«Ķ": 2286,
      "æ»¿è¶³": 2287,
      "å½Ļ": 2288,
      "çļĦç§ĳ": 2289,
      "èĩªæĪĳ": 2290,
      "é¡į": 2291,
      "åĲįè©ŀ": 2292,
      "çļĦè³ĩæĸĻ": 2293,
      "æĸ¹åĲĳ": 2294,
      "è¦ĸè¦º": 2295,
      "ç´į": 2296,
      "èĥĮæĻ¯": 2297,
      "åı¯ä»¥åľ¨": 2298,
      "æ°´å¹³": 2299,
      "è©©æŃĮ": 2300,
      "çļĦå¤©æ°£": 2301,
      "é¡§": 2302,
      "åĲĮæĻĤä¹Ł": 2303,
      "çļĦåĦª": 2304,
      "å¾ŀæĸĩç«ł": 2305,
      "æĭ¿": 2306,
      "èĸ©": 2307,
      "ä½µ": 2308,
      "åİ»äºĨ": 2309,
      "åıĥèĪĩ": 2310,
      "æª¢æŁ¥": 2311,
      "æĸĩåŃĹä¸Ń": 2312,
      "èĿ": 2313,
      "æĬķè³ĩ": 2314,
      "æľĥèŃ°": 2315,
      "ä¼´": 2316,
      "æĮīçħ§": 2317,
      "éŀĭ": 2318,
      "çļĦå°ı": 2319,
      "å¦Ĥä¸ĭ": 2320,
      "ä¸ĭä¾Ĩ": 2321,
      "è¿·": 2322,
      "é©Ł": 2323,
      "çļĦéĹľéįµ": 2324,
      "å¤ıå¤©": 2325,
      "çī©åĵģ": 2326,
      "ç¢³": 2327,
      "ç©ºæ°£": 2328,
      "æ´ŀ": 2329,
      "å°įè©±åħ§å®¹": 2330,
      "ç¾İåĳ³": 2331,
      "å»ºç¯ī": 2332,
      "å¥§": 2333,
      "æľ«": 2334,
      "çŁŃèªŀ": 2335,
      "æ¸¸": 2336,
      "è³ŀ": 2337,
      "å¹¸": 2338,
      "ç©©": 2339,
      "æĬ±": 2340,
      "éī": 2341,
      "çļĦæ²": 2342,
      "ä½įæĸ¼": 2343,
      "ä¼°": 2344,
      "æ¸ħæĻ": 2345,
      "ç°¡çŁŃ": 2346,
      "é¡ŀåĪ¥": 2347,
      "åįĬ": 2348,
      "ç¶ĵåħ¸": 2349,
      "ç¾İå¥½": 2350,
      "è«ĭä½ł": 2351,
      "çļĦå¥½": 2352,
      "æľ¬æĽ¸": 2353,
      "èª°": 2354,
      "äºĭå¯¦": 2355,
      "çļĦæĽ": 2356,
      "åİŁåĽł": 2357,
      "15": 2358,
      "å£ŀ": 2359,
      "æĽ¾": 2360,
      "çĨŁ": 2361,
      "ä»Ģéº¼æĺ¯": 2362,
      "è®ĢèĢħ": 2363,
      "åľĭå®¶": 2364,
      "éĽª": 2365,
      "éİ": 2366,
      "åŁ·è¡Į": 2367,
      "ç¹ģ": 2368,
      "æıĲåĪ°äºĨ": 2369,
      "çļĦæ¨Ļ": 2370,
      "éĻ³": 2371,
      "æľīèĳĹ": 2372,
      "å¼ķèµ·": 2373,
      "æľĹ": 2374,
      "çļĦåİŁ": 2375,
      "åĩºä¾Ĩ": 2376,
      "å½¢æĪĲ": 2377,
      "åŃ¤": 2378,
      "è«ĩ": 2379,
      "éĿ¢èĩ¨": 2380,
      "æĩīå°į": 2381,
      "æ´Ĺ": 2382,
      "è²´": 2383,
      "éĽ»è¦ĸ": 2384,
      "ç·´ç¿Ĵ": 2385,
      "å®ĺ": 2386,
      "åħĥç´ł": 2387,
      "éŃĶ": 2388,
      "çķ¶çĦ¶åı¯ä»¥": 2389,
      "æĦī": 2390,
      "éģİåİ»": 2391,
      "ç³¾": 2392,
      "æļ¢": 2393,
      "æº«åº¦": 2394,
      "ç´Ĳ": 2395,
      "æĸ°å¢ŀ": 2396,
      "æ³³": 2397,
      "é£¾": 2398,
      "æĺ¨å¤©": 2399,
      "å°ıæĻĤ": 2400,
      "åĪĨäº«": 2401,
      "çļĦå¯¦": 2402,
      "çľģ": 2403,
      "çļĦçłĶç©¶": 2404,
      "å°ĩæľĥ": 2405,
      "å¸¸è¦ĭ": 2406,
      "çļĦæĸ¹å¼ı": 2407,
      "æŁĶ": 2408,
      "Ġåľ¨": 2409,
      "å§Ĩ": 2410,
      "åĢ¼å¾Ĺ": 2411,
      "çı¾å¯¦": 2412,
      "è¶ħéģİ": 2413,
      "æ±ºçŃĸ": 2414,
      "ç¯Ħåľį": 2415,
      "éĨ¬": 2416,
      "çļĦå·¥ä½ľ": 2417,
      "çĶľ": 2418,
      "æ²ī": 2419,
      "çļĦåľ°æĸ¹": 2420,
      "æĪĳåĸľæŃ¡": 2421,
      "è·Ŀ": 2422,
      "æİĴæĶ¾": 2423,
      "éģ¸éłħ": 2424,
      "éĢĶ": 2425,
      "åĬĽéĩı": 2426,
      "æĲľ": 2427,
      "åļ´éĩį": 2428,
      "çĨĬ": 2429,
      "æķĪæŀľ": 2430,
      "èĤ¡": 2431,
      "çļĦç¤": 2432,
      "åĨ¬": 2433,
      "åı£æĦŁ": 2434,
      "çļĦæŃ·": 2435,
      "åį±": 2436,
      "éĢ²æŃ¥": 2437,
      "å¤§åŃ¸": 2438,
      "ï¼ģ<|": 2439,
      "çļĦæ®": 2440,
      "ç³»åĪĹ": 2441,
      "å¯¦éļĽ": 2442,
      "ä¼½": 2443,
      "ï¼ĮâĢľ": 2444,
      "éĩĿå°į": 2445,
      "ç¥ŀç¶ĵ": 2446,
      "æŃĲ": 2447,
      "åĳ¼åĲ¸": 2448,
      "æľīä¸ĢåĢĭ": 2449,
      "éģ©æĩī": 2450,
      "çļĦæĥħæ³ģ": 2451,
      "æĴŃ": 2452,
      "åģľ": 2453,
      "é«ĺæķĪ": 2454,
      "éľ²": 2455,
      "è²¨": 2456,
      "æŃ»": 2457,
      "èª¿æķ´": 2458,
      "éĿł": 2459,
      "éħ¸": 2460,
      "ç³ķ": 2461,
      "æ£®": 2462,
      "æľĢåĸľæŃ¡": 2463,
      "å¿ĺ": 2464,
      "çļĦç©": 2465,
      "å³¶": 2466,
      "åĵ¡å·¥": 2467,
      "è®ĵæĪĳåĢĳ": 2468,
      "å¤«": 2469,
      "äººçī©": 2470,
      "æİĮ": 2471,
      "å®Ļ": 2472,
      "éļĽç¶²è·¯": 2473,
      "äºĴåĭķ": 2474,
      "çŃīéłĺåŁŁ": 2475,
      "ç¶²éļĽç¶²è·¯": 2476,
      "å±Ģ": 2477,
      "åħ¨çĲĥè®Ĭæļĸ": 2478,
      "æĿ¿": 2479,
      "æ¨ĵ": 2480,
      "çļĦæĻĤåĢĻ": 2481,
      "å¾ŀéĢĻç¯ĩæĸĩç«ł": 2482,
      "æĺİå¤©": 2483,
      "12": 2484,
      "æ¢Ŀä»¶": 2485,
      "ç¾©è©ŀ": 2486,
      "èŁ": 2487,
      "å®ĩå®Ļ": 2488,
      "éģº": 2489,
      "çļĦæŃ·åı²": 2490,
      "åĲĪéģ©": 2491,
      "éĿ©": 2492,
      "çĽ¸åĲĮ": 2493,
      "çļĦæĹ¥": 2494,
      "åıĸå¾Ĺ": 2495,
      "çĻ»": 2496,
      "æĦĽæĥħ": 2497,
      "æĪĳåĢĳæĩīè©²": 2498,
      "ľä¼½": 2499,
      "åĽłçĤºå®ĥ": 2500,
      "ä¿®æĶ¹": 2501,
      "éĢĻåĢĭåı¥åŃĲ": 2502,
      "30": 2503,
      "çĦ¦æħ®": 2504,
      "çļĦæ´": 2505,
      "çļĦå±": 2506,
      "æĥħç¯Ģ": 2507,
      "åī©ä¸ĭ": 2508,
      "ç¾©å¤§åĪ©": 2509,
      "åįļ": 2510,
      "çļĦæĳ": 2511,
      "æ½Ľ": 2512,
      "çļĦæ°£": 2513,
      "æ³ķå¾ĭ": 2514,
      "çļĦè©±": 2515,
      "å½¢å¼ı": 2516,
      "éļİ": 2517,
      "ä¸Ģé¦ĸ": 2518,
      "æ¸ħæĻ°": 2519,
      "ç¶łèī²": 2520,
      "æ·±åħ¥": 2521,
      "æı¡": 2522,
      "æļĹ": 2523,
      "è·³": 2524,
      "æ¼¢": 2525,
      "æ¶Īè²»": 2526,
      "è¶³å¤ł": 2527,
      "æī¿": 2528,
      "æ··": 2529,
      "è©ŀå½Ļ": 2530,
      "çįİ": 2531,
      "åľ°é»ŀ": 2532,
      "åĢĴ": 2533,
      "èĭ±èªŀ": 2534,
      "åĢĭç³ĸæŀľ": 2535,
      "éļ±ç§ģ": 2536,
      "è²¬ä»»": 2537,
      "èĹı": 2538,
      "æµ·æ´ĭ": 2539,
      "æľĢä½³åĮĸ": 2540,
      "æ±Ł": 2541,
      "ç´°ç¯Ģ": 2542,
      "åĭĩ": 2543,
      "çŃĸçķ¥": 2544,
      "çļĦæ®µ": 2545,
      "ç§Ģ": 2546,
      "çļĦåŁİ": 2547,
      "å¯¦é«Ķ": 2548,
      "æ¹¯": 2549,
      "çļĦå¤§": 2550,
      "çĽ¸ä¼¼": 2551,
      "å·§åħĭ": 2552,
      "æ£Ĵ": 2553,
      "éģĵå¾·": 2554,
      "èĹ¥çī©": 2555,
      "è¿´": 2556,
      "åħ¬åı¸çļĦ": 2557,
      "åģı": 2558,
      "å·¦": 2559,
      "100": 2560,
      "ä¸¦åľ¨": 2561,
      "ç·ļä¸Ĭ": 2562,
      "çļĦåĸ®": 2563,
      "å¤ļæ¨£": 2564,
      "åıįæĩī": 2565,
      "çļĦæ®µèĲ½": 2566,
      "çļĦé£Łçī©": 2567,
      "æıĲåĩº": 2568,
      "çļĦç¤¾": 2569,
      "åł±åĳĬ": 2570,
      "åīµæĦı": 2571,
      "éĨĴ": 2572,
      "ä¾ĭåŃĲ": 2573,
      "éłĵ": 2574,
      "å®Ī": 2575,
      "ç§ĳåŃ¸å®¶": 2576,
      "ĿéĢļ": 2577,
      "æı®": 2578,
      "çĦ¡è«ĸ": 2579,
      "çļĦå½¢": 2580,
      "åŃ£ç¯Ģ": 2581,
      "çĩĪ": 2582,
      "æļ´": 2583,
      "åĪĨé¡ŀçĤº": 2584,
      "æ¸¸æ³³": 2585,
      "éļľ": 2586,
      "éĸĴ": 2587,
      "ĥ¹": 2588,
      "è¢ĭ": 2589,
      "æľĿ": 2590,
      "æ¿ĥ": 2591,
      "æĺ¯çļĦ": 2592,
      "ä¸Ģæ¨£": 2593,
      "ä¿Ŀåģ¥": 2594,
      "æł¹æĵļä»¥ä¸ĭ": 2595,
      "éıĪ": 2596,
      "çļĦæ¼": 2597,
      "çļĦéĩįè¦ģæĢ§": 2598,
      "çļĦåĤ": 2599,
      "ä»įçĦ¶": 2600,
      "éĽ»èħ¦": 2601,
      "ä¸Ģç¯ĩæĸĩç«ł": 2602,
      "æĶ¿çŃĸ": 2603,
      "åģ¥èº«": 2604,
      "ä»¥ä¸ĭæĺ¯ä¸Ģ": 2605,
      "å¸¶ä¾ĨäºĨ": 2606,
      "åĲĪçĲĨ": 2607,
      "åı³": 2608,
      "ä¸įéģİ": 2609,
      "çļĦæĿ": 2610,
      "çļĦåīµ": 2611,
      "ç¥ŀç§ĺ": 2612,
      "æ¨¡å¼ı": 2613,
      "çºĮå¯«": 2614,
      "åĦ²": 2615,
      "å°ģ": 2616,
      "å·§åħĭåĬĽ": 2617,
      "åľĵ": 2618,
      "å¹³è¡¡": 2619,
      "æĶ¹éĢ²": 2620,
      "è¡Ĺ": 2621,
      "çĭĢæħĭ": 2622,
      "..": 2623,
      "çĬ¯": 2624,
      "çļĦåģ¥åº·": 2625,
      "æĹ¥æľ¬": 2626,
      "ç«¶çĪŃ": 2627,
      "çĹĽ": 2628,
      "åľ¨å®¶": 2629,
      "å°ıæĺİæľī": 2630,
      "èĢĲ": 2631,
      "åľĭéļĽ": 2632,
      "åºĬ": 2633,
      "çļĦçĴ°å¢ĥ": 2634,
      "çļĦåĳ": 2635,
      "æĭ¼": 2636,
      "çļĦæķĪ": 2637,
      "ç¬¦åĲĪ": 2638,
      "é¼ĵåĭµ": 2639,
      "èĦĤ": 2640,
      "æĺİç¢º": 2641,
      "çĳľä¼½": 2642,
      "æľĢå¤§": 2643,
      "ç®±": 2644,
      "ä»ĭç´¹äºĨ": 2645,
      "çı¾è±¡": 2646,
      "éĢĲæ¼¸": 2647,
      "åı£åĳ³": 2648,
      "ç¸½æĺ¯": 2649,
      "ç·©è§£": 2650,
      "ç´Ĳç´Ħ": 2651,
      "è®ĵä½ł": 2652,
      "æĥħç·Ĵ": 2653,
      "åŁ¹": 2654,
      "çļĦæµ·": 2655,
      "è¸ı": 2656,
      "50": 2657,
      "ä¹İ": 2658,
      "æķĳ": 2659,
      "æĦŁåıĹ": 2660,
      "è¤²": 2661,
      "æĬĹ": 2662,
      "çī©çĲĨ": 2663,
      "æ°¸": 2664,
      "è²¢": 2665,
      "åīµä½ľ": 2666,
      "è©ŀèªŀ": 2667,
      "Ġ=": 2668,
      "äººåĲį": 2669,
      "çļĦæ±": 2670,
      "æ¸¬è©¦": 2671,
      "çļĦæĳĺè¦ģ": 2672,
      "åħ¶æ¬¡": 2673,
      "çļĦåł": 2674,
      "åıĹæŃ¡è¿İ": 2675,
      "åĽ°éĽ£": 2676,
      "ç«¥": 2677,
      "åį³åı¯": 2678,
      "è¼Ľ": 2679,
      "çļĦä¸»": 2680,
      "æıĲä¾Ľä¸ĢåĢĭ": 2681,
      "ç´Ļ": 2682,
      "çĶŁæ´»ä¸Ń": 2683,
      "ä¸Ĭåįĩ": 2684,
      "å¡ĳèĨł": 2685,
      "å·¥ç¨ĭ": 2686,
      "çµ²": 2687,
      "ä¸ĸç´Ģ": 2688,
      "åĪĨçµ¦": 2689,
      "ç±į": 2690,
      "æ½®": 2691,
      "æł¸": 2692,
      "æİ¨åĭķ": 2693,
      "è£½éĢł": 2694,
      "ç´ħèī²": 2695,
      "é¹½": 2696,
      "æľĢæĸ°": 2697,
      "çļĦåŁİå¸Ĥ": 2698,
      "éĻĲåĪ¶": 2699,
      "è¿½æ±Ĥ": 2700,
      "æ¸Ľè¼ķ": 2701,
      "è·ĿéĽ¢": 2702,
      "é»İ": 2703,
      "å®¶å±ħ": 2704,
      "æŁĲäºĽ": 2705,
      "æĻ¯é»ŀ": 2706,
      "ä¹ĭåīį": 2707,
      "çļĦç¬": 2708,
      "æ¬£": 2709,
      "çħ®": 2710,
      "æĩīçĶ¨æĸ¼": 2711,
      "çĶŁæħĭç³»çµ±": 2712,
      "ä¸Ģåı¥è©±": 2713,
      "æ¦": 2714,
      "ç©ºéĸĵ": 2715,
      "å¤ªç©º": 2716,
      "çļĦåħ§å®¹": 2717,
      "èĨļ": 2718,
      "è©ķä¼°": 2719,
      "çļĦä¸ĢåĢĭ": 2720,
      "ç¶ľ": 2721,
      "è§£æ±ºæĸ¹æ¡Ī": 2722,
      "æıĲåįĩ": 2723,
      "å´": 2724,
      "å½±çīĩ": 2725,
      "18": 2726,
      "æĽ´å¥½çļĦ": 2727,
      "å¹³èĩº": 2728,
      "è²¢çį»": 2729,
      "çĶ¨ä¾Ĩ": 2730,
      "æĲŃéħį": 2731,
      "åĢĭæĢ§": 2732,
      "å¡Ķ": 2733,
      "æ»ĳ": 2734,
      "ä¸ĸçķĮä¸ĬæľĢ": 2735,
      "å¿«æ¨Ĥ": 2736,
      "åħ¬åħ±": 2737,
      "ä¸ĭæĸĩ": 2738,
      "éįĭ": 2739,
      "æĻļä¸Ĭ": 2740,
      "é«®": 2741,
      "æĪĲéķ·": 2742,
      "çĩŁé¤Ĭ": 2743,
      "å¹£": 2744,
      "åº¦åĴĮ": 2745,
      "å²": 2746,
      "æĻĤå°ļ": 2747,
      "äºĨè§£": 2748,
      "ç¥Ŀ": 2749,
      "æĵ´": 2750,
      "æ¨¡æĵ¬": 2751,
      "åľĪ": 2752,
      "ä½¿åħ¶æĽ´åĬł": 2753,
      "çļĦå¸": 2754,
      "ä¾Ĩèĩª": 2755,
      "èª¿æŁ¥": 2756,
      "ä¸Ģå®¶": 2757,
      "çıį": 2758,
      "å®®": 2759,
      "çĭĢæ³ģ": 2760,
      "æĦıæĢĿ": 2761,
      "æ±ł": 2762,
      "æ©ĻåŃĲ": 2763,
      "å¤ıåŃ£": 2764,
      "éīĽ": 2765,
      "åĵªåĢĭ": 2766,
      "æ¹ĸ": 2767,
      "çļĦåĥ¹": 2768,
      "åĲ«ç¾©": 2769,
      "æ°£é«Ķ": 2770,
      "è¦Ĩ": 2771,
      "çīĽå¥¶": 2772,
      "ä¹ĺ": 2773,
      "æĺ¯çĶ±": 2774,
      "åħ©åĢĭåı¥åŃĲ": 2775,
      "å¼µä¸ī": 2776,
      "ç±ĥ": 2777,
      "æŃ§": 2778,
      "__": 2779,
      "éģĶåĪ°": 2780,
      "ä¹Łæľĥ": 2781,
      "æĵį": 2782,
      "æĺł": 2783,
      "çļĦåĸ®è©ŀ": 2784,
      "è«ĸæĸĩ": 2785,
      "å®Įåħ¨": 2786,
      "ç©©å®ļ": 2787,
      "æ±ģ": 2788,
      "åĴĮåħ¶ä»ĸ": 2789,
      "è¨ĺéĮĦ": 2790,
      "å¿Ļ": 2791,
      "æĹ©ä¸Ĭ": 2792,
      "åľ°æĸ¹": 2793,
      "å¹³åĿĩ": 2794,
      "æ©Łæ§ĭ": 2795,
      "ãĢĤâĢĿ<|": 2796,
      "ä¸ĢèĪ¬": 2797,
      "çµ¦åĩºä¸ĢåĢĭ": 2798,
      "æĲį": 2799,
      "éĢĻå®¶": 2800,
      "å¾ĳ": 2801,
      "æĪ¶å¤ĸ": 2802,
      "æķ£æŃ¥": 2803,
      "å¥®": 2804,
      "çį²åıĸ": 2805,
      "å°Ĭéĩį": 2806,
      "çĩŁéĬ·": 2807,
      "éĨ«çĻĤä¿Ŀåģ¥": 2808,
      "å±ķç¤º": 2809,
      "çĽ¸ä¿¡": 2810,
      "çĽ´æİ¥": 2811,
      "æĪĲæľ¬": 2812,
      "åı¯èĥ½æĺ¯": 2813,
      "åĪĹè¡¨": 2814,
      "åŃ¸ç¿ĴåĴĮ": 2815,
      "éĤ£è£¡": 2816,
      "æĦıåĳ³": 2817,
      "åħŃ": 2818,
      "ä¸¦ä¸į": 2819,
      "æĿĳ": 2820,
      "æŃ¥é©Ł": 2821,
      "æĪĳèªįçĤº": 2822,
      "ç¸®": 2823,
      "çļĦæĢĿ": 2824,
      "åĽŀçŃĶåķıé¡Į": 2825,
      "åİŁå§ĭ": 2826,
      "çĩĴ": 2827,
      "ç½ª": 2828,
      "åĪĨåĪ¥": 2829,
      "æĹ¥å¸¸": 2830,
      "çµ¦ä½ł": 2831,
      "çłĶ": 2832,
      "åŁºç¤İ": 2833,
      "å½¢å®¹": 2834,
      "ä¸ĢåĢĭäºº": 2835,
      "æŁ¥è©¢": 2836,
      "éª": 2837,
      "ä¸Ĭæµ·": 2838,
      "çļĦåĽŀ": 2839,
      "éīĽçŃĨ": 2840,
      "éº¥": 2841,
      "è¡¨éģĶäºĨ": 2842,
      "å»ºç«ĭä¸ĢåĢĭ": 2843,
      "æĪĳå¾Ī": 2844,
      "ç¨ĭåº¦": 2845,
      "åĭŀ": 2846,
      "å¢ŀéķ·": 2847,
      "çļĦç³": 2848,
      "çļĦæ³": 2849,
      "å·´é»İ": 2850,
      "æ·±åĪ»": 2851,
      "çĤĴ": 2852,
      "æĢ¥": 2853,
      "éģį": 2854,
      "ä»¥ç¢ºä¿Ŀ": 2855,
      "æ´¾": 2856,
      "èĽĭçĻ½": 2857,
      "åİļ": 2858,
      "è¶³çĲĥ": 2859,
      "çĽ¤": 2860,
      "è¡Ŀ": 2861,
      "æĶ¹å¯«": 2862,
      "æĦıåĳ³èĳĹ": 2863,
      "éĢĻç¯ĩ": 2864,
      "èĩ³å°ĳ": 2865,
      "çļĦç¸": 2866,
      "éĩıåŃĲ": 2867,
      "æŀ¶": 2868,
      "çļĦæĸ°": 2869,
      "çļĦäºĭæĥħ": 2870,
      "æĸ¹ä¾¿": 2871,
      "çĩĥ": 2872,
      "çĢ": 2873,
      "é¤ħ": 2874,
      "æĽ¿æıĽ": 2875,
      "æĸ°èģŀåł±éģĵ": 2876,
      "ä¸Ģå¤©": 2877,
      "åı¯ä»¥ä½¿çĶ¨": 2878,
      "çķ¶åīį": 2879,
      "æĩīçĶ¨ç¨ĭå¼ı": 2880,
      "é¡ŀä¼¼": 2881,
      "çµ¦å®ļçļĦæĸĩåŃĹ": 2882,
      "å»£åĳĬ": 2883,
      "åĪº": 2884,
      "å¯«ä½ľ": 2885,
      "è¨Ĥ": 2886,
      "çİī": 2887,
      "éĻĦ": 2888,
      "æŃī": 2889,
      "æ°£æº«": 2890,
      "ä¿ĿèŃī": 2891,
      "å¹¸ç¦ı": 2892,
      "æĲľå°ĭ": 2893,
      "å¤©ç©º": 2894,
      "éľĩ": 2895,
      "è¡¨éĿ¢": 2896,
      "å°¤": 2897,
      "ä¸įçŁ¥éģĵ": 2898,
      "ä¸ĢçµĦ": 2899,
      "æİ¨å»£": 2900,
      "æĤħ": 2901,
      "åķĨæ¥Ń": 2902,
      "éĳ": 2903,
      "çļĦçĭ": 2904,
      "åłħæĮģ": 2905,
      "ç¸¾": 2906,
      "æĶ»": 2907,
      "éĽħ": 2908,
      "æ½¤": 2909,
      "åĳĪ": 2910,
      "å®ļç¾©": 2911,
      "æľĢå¥½": 2912,
      "on": 2913,
      "å¯¦é©Ĺ": 2914,
      "æ¶¼": 2915,
      "æ¯ıåĢĭæľĭåıĭ": 2916,
      "åı¥åŃĲä¸Ń": 2917,
      "çµĲåĲĪ": 2918,
      "æĬĺ": 2919,
      "åĪĨåĪ°": 2920,
      "å¿ħè¦ģ": 2921,
      "è§Ģçľ¾": 2922,
      "æ£Ħ": 2923,
      "çļĦåķĨ": 2924,
      "çĻ¼æı®": 2925,
      "åı¯æĮģçºĮçĻ¼å±ķ": 2926,
      "çīĻ": 2927,
      "è¡£æľį": 2928,
      "éľĢè¦ģæ³¨æĦı": 2929,
      "åĽº": 2930,
      "çľŁæŃ£": 2931,
      "å¹ħ": 2932,
      "çļĦæĦĽ": 2933,
      "çļĦæĻº": 2934,
      "é¨İ": 2935,
      "ä¸»ç¾©": 2936,
      "æİī": 2937,
      "æģĲ": 2938,
      "åĶ±": 2939,
      "å¯¬": 2940,
      "æĢĿæĥ³": 2941,
      "èĥ½éĩı": 2942,
      "åı¯ä»¥è¢«": 2943,
      "èĤĮ": 2944,
      "è¼ķé¬Ĩ": 2945,
      "çĴ°å¢ĥä¿ĿèŃ·": 2946,
      "èĭ¦": 2947,
      "æĿŁ": 2948,
      "åĨĴ": 2949,
      "çĽĽ": 2950,
      "æİ¥åıĹ": 2951,
      "æ¤Ĵ": 2952,
      "å®¶äºº": 2953,
      "çļĦæł": 2954,
      "å®ĥåĢĳçļĦ": 2955,
      "åº«": 2956,
      "æĹ¥æľŁ": 2957,
      "éĢ²åħ¥": 2958,
      "Ľæ¨Ĥ": 2959,
      "è¸Ĳ": 2960,
      "å°¾": 2961,
      "å®īæİĴ": 2962,
      "èĢĮä¸įæĺ¯": 2963,
      "çıł": 2964,
      "åŁºæľ¬": 2965,
      "èī¯å¥½": 2966,
      "æ£®æŀĹ": 2967,
      "åľ¨æľªä¾Ĩ": 2968,
      "åĴĮæĸĩåĮĸ": 2969,
      "èĦħ": 2970,
      "éĿ¢å°į": 2971,
      "ä½łéľĢè¦ģ": 2972,
      "åª½": 2973,
      "ä¸Ģæ®µæĸĩåŃĹ": 2974,
      "ä¸ĭåĪĹ": 2975,
      "åĨł": 2976,
      "ä½łå¥½": 2977,
      "è«ĭåĳĬè¨´æĪĳ": 2978,
      "çļĦæıı": 2979,
      "çļĦçĩ": 2980,
      "çĽ¸äºĴ": 2981,
      "çļĦæĦıæĢĿ": 2982,
      "çĿ¡çľł": 2983,
      "è¨ª": 2984,
      "åľ¨ä¸Ģèµ·": 2985,
      "æıĲä¾Ľä¸ĢäºĽ": 2986,
      "åĩºèī²": 2987,
      "è¨Ńå®ļ": 2988,
      "èĤ¥": 2989,
      "åħ±æľī": 2990,
      "ç¸½ä¹ĭ": 2991,
      "å¯Ĵ": 2992,
      "èģ²éŁ³": 2993,
      "äºĨä¸ĢäºĽ": 2994,
      "å®ļæľŁ": 2995,
      "é«ĺèĪĪ": 2996,
      "åĪĹåĩº": 2997,
      "çĽ¸å°į": 2998,
      "èªł": 2999,
      "èĩªåĭķåĮĸ": 3000,
      "ç¶ĵéģİ": 3001,
      "é¬¥": 3002,
      "æµģè¡Į": 3003,
      "çĽ®çļĦåľ°": 3004,
      "çµĲè«ĸ": 3005,
      "å¯«ä¸Ģç¯ĩ": 3006,
      "æĺ¯ä¸Ģéĥ¨": 3007,
      "çĶŁåŃĺ": 3008,
      "ç¹ª": 3009,
      "éĤı": 3010,
      "é£²æĸĻ": 3011,
      "æĥ¡": 3012,
      "å¤§å®¶": 3013,
      "èĽĭç³ķ": 3014,
      "çļĦæĽ¸": 3015,
      "é½¡": 3016,
      "æº¼": 3017,
      "ç¿°": 3018,
      "è¦ıåĬĥ": 3019,
      "å°ĭæ±Ĥ": 3020,
      "çļĦæ¼Ķ": 3021,
      "éłĲéĺ²": 3022,
      "äººçĶŁ": 3023,
      "æĪĳåľ¨": 3024,
      "æ³¡": 3025,
      "èº«é«Ķåģ¥åº·": 3026,
      "åŃ¤çį¨": 3027,
      "éĨ«çĻĤéłĺåŁŁ": 3028,
      "å®ľ": 3029,
      "ä¹Łæľī": 3030,
      "é¡¯ç¤º": 3031,
      "è·ĳæŃ¥": 3032,
      "éģ©éĩı": 3033,
      "èŃľ": 3034,
      "èĪ¹": 3035,
      "å»¢": 3036,
      "çļĦçŃĶæ¡Ī": 3037,
      "çļĦç¸½": 3038,
      "åı¤è©©": 3039,
      "ç¡": 3040,
      "æľµ": 3041,
      "åĵªè£¡": 3042,
      "çµ¦å®ļä¸ĢåĢĭ": 3043,
      "é«ĶèĤ²": 3044,
      "æ¼Ķåĵ¡": 3045,
      "æº«æļĸ": 3046,
      "æİ¨çĲĨ": 3047,
      "æİĮæı¡": 3048,
      "æĬ½åıĸ": 3049,
      "éĤ£äºĽ": 3050,
      "çĶļ": 3051,
      "æµģæļ¢": 3052,
      "éĩįé»ŀ": 3053,
      "éĸĭæĶ¾": 3054,
      "é´": 3055,
      "èĹįèī²": 3056,
      "éĢ²è¡ĮåĪĨé¡ŀ": 3057,
      "éł»": 3058,
      "åīįå¾Ģ": 3059,
      "å¯µçī©": 3060,
      "å¥ı": 3061,
      "æĮĩåĩº": 3062,
      "æŃ§è¦ĸ": 3063,
      "202": 3064,
      "æĪĲèªŀ": 3065,
      "åĿ¦": 3066,
      "çļĦé¢¨éļª": 3067,
      "æĩ·": 3068,
      "æľīåĵªäºĽ": 3069,
      "éĥ½æľĥ": 3070,
      "è¾£": 3071,
      "çī©é«Ķ": 3072,
      "ä¸ŃæľĢ": 3073,
      "ç¤¾ç¾¤": 3074,
      "èĻĽæĵ¬": 3075,
      "å·¨å¤§": 3076,
      "æ°§åĮĸ": 3077,
      "çĲĨè«ĸ": 3078,
      "æĪĲçĤºäºĨ": 3079,
      "åĳ¨åľį": 3080,
      "éĤıè¼¯": 3081,
      "è¦ıåīĩ": 3082,
      "æ¦Ĥå¿µ": 3083,
      "éĢ£ç·ļ": 3084,
      "æķĹ": 3085,
      "çĳªéºĹ": 3086,
      "éĽ¶": 3087,
      "ä¸Ńæĸĩ": 3088,
      "å¾Ĺåĩº": 3089,
      "åľ¨ä¸ĢåĢĭ": 3090,
      "ç²¾ç¥ŀ": 3091,
      "ç´Ħç¿°": 3092,
      "èķī": 3093,
      "æ¶²": 3094,
      "æĹ¨åľ¨": 3095,
      "çĤİ": 3096,
      "å¤ªéĻ½ç³»": 3097,
      "éĽŀèĽĭ": 3098,
      "å¥³æĢ§": 3099,
      "æ³°": 3100,
      "åįģåĪĨ": 3101,
      "çĹħæ¯Ĵ": 3102,
      "è¼ª": 3103,
      "æĻĤåĢĻ": 3104,
      "èĭ±åľĭ": 3105,
      "è®ļ": 3106,
      "åıªæĺ¯": 3107,
      "éķ·åº¦": 3108,
      "è£ľ": 3109,
      "çļĦåİŁåĽł": 3110,
      "éĦī": 3111,
      "èĩªåĭķé§ķé§Ľ": 3112,
      "ä½¿åħ¶æĽ´": 3113,
      "åĦªç§Ģ": 3114,
      "çļĦæĥ³": 3115,
      "çļĦæ¸": 3116,
      "è²Ŀ": 3117,
      "ä»ĸåľ¨": 3118,
      "å¦Ļ": 3119,
      "èĦ«": 3120,
      "åĲĦåĢĭ": 3121,
      "ä¸Ģæ¬¾": 3122,
      "éĢĻæ¬¾": 3123,
      "èĥ¡": 3124,
      "åĪĨçĤº": 3125,
      "çļĦæĻ¯": 3126,
      "æıĲåıĸåĩº": 3127,
      "èħ³è¸ı": 3128,
      "çļĦæ´»åĭķ": 3129,
      "ä¸ĬéĿ¢": 3130,
      "æķ¬": 3131,
      "æµ·çģĺ": 3132,
      "èľľ": 3133,
      "éģµ": 3134,
      "é¦Ļèķī": 3135,
      "çļĦåĨ": 3136,
      "æ¡Į": 3137,
      "æºĿéĢļ": 3138,
      "èªĮ": 3139,
      "å·¥æ¥Ń": 3140,
      "äº¡": 3141,
      "200": 3142,
      "ä¸»äºº": 3143,
      "æĪĳéľĢè¦ģ": 3144,
      "éĹľéįµè³ĩè¨Ĭ": 3145,
      "éĸī": 3146,
      "éİ®": 3147,
      "çļĦçŁŃ": 3148,
      "æľīæīĢ": 3149,
      "èŃ½": 3150,
      "æ··åĲĪ": 3151,
      "ºä¹³": 3152,
      "èģĸ": 3153,
      "ï¼īï¼Į": 3154,
      "å¤¢æĥ³": 3155,
      "å¯«ä¸ĢåĢĭ": 3156,
      "åĵ¥": 3157,
      "æĸ°é®®": 3158,
      "èĤ¯": 3159,
      "çĺ": 3160,
      "æĺ¯ä¸Ńåľĭ": 3161,
      "ä¹ĭå¾Į": 3162,
      "æĬ±æŃī": 3163,
      "ç§»": 3164,
      "çĶ³": 3165,
      "å«": 3166,
      "çŁŃæĸĩ": 3167,
      "æľĢé«ĺ": 3168,
      "åĭķä½ľ": 3169,
      "æ¨Ļæºĸ": 3170,
      "èħ³è¸ıè»Ĭ": 3171,
      "å°ıåŃ¸": 3172,
      "è¨ĺæĨ¶": 3173,
      "çļĦç·": 3174,
      "é«ĺåº¦": 3175,
      "çĬ¬": 3176,
      "è§¸": 3177,
      "æĸĩåĮĸåĴĮ": 3178,
      "åĮĸçļĦ": 3179,
      "æĩĤ": 3180,
      "ãĢĭãĢģ": 3181,
      "åļĲ": 3182,
      "ç¥ŀç¶ĵç¶²è·¯": 3183,
      "è«ĭçµ¦æĪĳ": 3184,
      "åħ«": 3185,
      "å¥¹çļĦ": 3186,
      "æĺ¯ä¸Ģä½į": 3187,
      "æł¹æĵļæıĲä¾Ľ": 3188,
      "èªŀéŁ³èŃĺåĪ¥": 3189,
      "èª²ç¨ĭ": 3190,
      "XX": 3191,
      "å±ķçı¾": 3192,
      "åĤ¾": 3193,
      "è½īæıĽ": 3194,
      "ĠâĢľ": 3195,
      "åĬĳ": 3196,
      "çļĦçĨ": 3197,
      "æ·¨": 3198,
      "çļĦæııè¿°": 3199
    },
    "merges": [
      [
        "ï",
        "¼"
      ],
      [
        "ç",
        "ļ"
      ],
      [
        "çļ",
        "Ħ"
      ],
      [
        "ï¼",
        "Į"
      ],
      [
        "ä",
        "¸"
      ],
      [
        "ã",
        "Ģ"
      ],
      [
        "ãĢ",
        "Ĥ"
      ],
      [
        "ä",
        "º"
      ],
      [
        "æ",
        "ľ"
      ],
      [
        "ä",
        "»"
      ],
      [
        "å",
        "ı"
      ],
      [
        "æ",
        "ĸ"
      ],
      [
        "å",
        "Ģ"
      ],
      [
        "æ",
        "Ī"
      ],
      [
        "å",
        "ľ"
      ],
      [
        "å",
        "ħ"
      ],
      [
        "i",
        "m"
      ],
      [
        "|",
        ">"
      ],
      [
        "<",
        "|"
      ],
      [
        "æ",
        "ĺ"
      ],
      [
        "ä¸",
        "Ģ"
      ],
      [
        "é",
        "Ģ"
      ],
      [
        "å",
        "°"
      ],
      [
        "ä",
        "½"
      ],
      [
        "å",
        "Ĵ"
      ],
      [
        "åĴ",
        "Į"
      ],
      [
        "ç",
        "Ķ"
      ],
      [
        "å",
        "¤"
      ],
      [
        "å",
        "®"
      ],
      [
        "å",
        "Ī"
      ],
      [
        "å",
        "Ń"
      ],
      [
        "æĺ",
        "¯"
      ],
      [
        "é",
        "ģ"
      ],
      [
        "åĢ",
        "ĭ"
      ],
      [
        "å",
        "Ĳ"
      ],
      [
        "ä»",
        "¥"
      ],
      [
        "å",
        "¾"
      ],
      [
        "ãĢ",
        "ģ"
      ],
      [
        "æĪ",
        "ĳ"
      ],
      [
        "è",
        "¦"
      ],
      [
        "åľ",
        "¨"
      ],
      [
        "è",
        "¡"
      ],
      [
        "äº",
        "º"
      ],
      [
        "çļĦ",
        "æ"
      ],
      [
        "å",
        "Ĭ"
      ],
      [
        "a",
        "r"
      ],
      [
        "e",
        "n"
      ],
      [
        "ä",
        "¾"
      ],
      [
        "s",
        "t"
      ],
      [
        "ar",
        "t"
      ],
      [
        "en",
        "d"
      ],
      [
        "st",
        "art"
      ],
      [
        "æľ",
        "ī"
      ],
      [
        "ï¼",
        "ļ"
      ],
      [
        "è",
        "¨"
      ],
      [
        "éĢ",
        "Ļ"
      ],
      [
        "åı",
        "¯"
      ],
      [
        "æ",
        "Ń"
      ],
      [
        "äº",
        "Ĩ"
      ],
      [
        "æ",
        "Ļ"
      ],
      [
        "è",
        "©"
      ],
      [
        "ä¸",
        "Ń"
      ],
      [
        "é",
        "¡"
      ],
      [
        "ãĢĤ",
        "<|"
      ],
      [
        "å",
        "·"
      ],
      [
        "æĸ",
        "ĩ"
      ],
      [
        "ç",
        "Ĥ"
      ],
      [
        "ĥ",
        "½"
      ],
      [
        "ç",
        "µ"
      ],
      [
        "è¦",
        "ģ"
      ],
      [
        "çĤ",
        "º"
      ],
      [
        "è",
        "ª"
      ],
      [
        "ç",
        "ī"
      ],
      [
        "é",
        "ĩ"
      ],
      [
        "æ",
        "ı"
      ],
      [
        "åĢ",
        "ĳ"
      ],
      [
        "çļĦ",
        "å"
      ],
      [
        "è",
        "Ģ"
      ],
      [
        "å",
        "¸"
      ],
      [
        "å",
        "¥"
      ],
      [
        "å",
        "ĭ"
      ],
      [
        "ä¸",
        "į"
      ],
      [
        "çĶ",
        "¨"
      ],
      [
        "é",
        "Ľ"
      ],
      [
        "çĶ",
        "Ł"
      ],
      [
        "è",
        "³"
      ],
      [
        "é",
        "«"
      ],
      [
        "ä",
        "¹"
      ],
      [
        "å",
        "¹"
      ],
      [
        "åı¯",
        "ä»¥"
      ],
      [
        "ç",
        "Ń"
      ],
      [
        "è",
        "ĩ"
      ],
      [
        "é",
        "Ŀ"
      ],
      [
        "æ",
        "³"
      ],
      [
        "Ġ",
        "<|"
      ],
      [
        "è",
        "ĥ½"
      ],
      [
        "æ",
        "Ħ"
      ],
      [
        "ç",
        "¨"
      ],
      [
        "æ",
        "ķ"
      ],
      [
        "æ",
        "Ľ"
      ],
      [
        "ç",
        "Ļ"
      ],
      [
        "å",
        "¯"
      ],
      [
        "ä¾",
        "Ĩ"
      ],
      [
        "æ",
        "ī"
      ],
      [
        "â",
        "Ģ"
      ],
      [
        "å",
        "º"
      ],
      [
        "å",
        "Į"
      ],
      [
        "é",
        "ĸ"
      ],
      [
        "ç",
        "´"
      ],
      [
        "ç",
        "Ľ"
      ],
      [
        "ä¸",
        "ĭ"
      ],
      [
        "ä¸Ģ",
        "åĢĭ"
      ],
      [
        "¦",
        "Ĥ"
      ],
      [
        "å",
        "¼"
      ],
      [
        "ç",
        "Ĳ"
      ],
      [
        "æĪ",
        "Ĳ"
      ],
      [
        "å",
        "ĩ"
      ],
      [
        "æ",
        "İ"
      ],
      [
        "åŃ",
        "¸"
      ],
      [
        "æ",
        "°"
      ],
      [
        "æı",
        "Ĳ"
      ],
      [
        "ä",
        "¿"
      ],
      [
        "åĪ",
        "°"
      ],
      [
        "ä»",
        "ĸ"
      ],
      [
        "å",
        "Ľ"
      ],
      [
        "æ",
        "¨"
      ],
      [
        "æ",
        "ŀ"
      ],
      [
        "å",
        "ĵ"
      ],
      [
        "å",
        "¦Ĥ"
      ],
      [
        "åĩ",
        "º"
      ],
      [
        "å°",
        "į"
      ],
      [
        "ç",
        "¶"
      ],
      [
        "æ",
        "ħ"
      ],
      [
        "è¡",
        "Į"
      ],
      [
        "æ",
        "Ķ"
      ],
      [
        "æ",
        "ĥ"
      ],
      [
        "ç",
        "«"
      ],
      [
        "æ",
        "ĵ"
      ],
      [
        "æĸ",
        "¼"
      ],
      [
        "ä½",
        "ł"
      ],
      [
        "åŃ",
        "Ĳ"
      ],
      [
        "è",
        "Ń"
      ],
      [
        "ä¸",
        "Ĭ"
      ],
      [
        "å",
        "į"
      ],
      [
        "è",
        "§"
      ],
      [
        "æ",
        "Ģ"
      ],
      [
        "åľ",
        "°"
      ],
      [
        "é",
        "ł"
      ],
      [
        "é¡",
        "Į"
      ],
      [
        "ç",
        "Ħ"
      ],
      [
        "æ",
        "Ĭ"
      ],
      [
        "è",
        "®"
      ],
      [
        "å",
        "ķ"
      ],
      [
        "å°",
        "ı"
      ],
      [
        "æĻ",
        "Ĥ"
      ],
      [
        "å",
        "½"
      ],
      [
        "æľ",
        "ĥ"
      ],
      [
        "é",
        "Ĥ"
      ],
      [
        "è",
        "«"
      ],
      [
        "çŃ",
        "ī"
      ],
      [
        "æĸ",
        "¹"
      ],
      [
        "å",
        "¿"
      ],
      [
        "åĪ",
        "Ĩ"
      ],
      [
        "ç",
        "ķ"
      ],
      [
        "æĽ",
        "´"
      ],
      [
        "äº",
        "Ľ"
      ],
      [
        "å¥",
        "½"
      ],
      [
        "å¤",
        "ļ"
      ],
      [
        "ç",
        "¾"
      ],
      [
        "èĩ",
        "ª"
      ],
      [
        "å¤",
        "§"
      ],
      [
        "é",
        "Ĺ"
      ],
      [
        "è",
        "Ī"
      ],
      [
        "è",
        "¿"
      ],
      [
        "æ",
        "¯"
      ],
      [
        "ï¼",
        "Ł"
      ],
      [
        "ä½",
        "ľ"
      ],
      [
        "çī",
        "©"
      ],
      [
        "ç",
        "ı"
      ],
      [
        "åĭ",
        "ķ"
      ],
      [
        "å·",
        "¥"
      ],
      [
        "éĹ",
        "ľ"
      ],
      [
        "å",
        "±"
      ],
      [
        "é",
        "º"
      ],
      [
        "åŃ",
        "Ĺ"
      ],
      [
        "å",
        "ī"
      ],
      [
        "é",
        "ľ"
      ],
      [
        "æĪĳ",
        "åĢĳ"
      ],
      [
        "ä¸",
        "¦"
      ],
      [
        "æľ",
        "Ģ"
      ],
      [
        "å®",
        "ļ"
      ],
      [
        "çĻ",
        "¼"
      ],
      [
        "é",
        "ļ"
      ],
      [
        "è",
        "²"
      ],
      [
        "çļĦ",
        "ç"
      ],
      [
        "é«",
        "Ķ"
      ],
      [
        "é",
        "£"
      ],
      [
        "è³",
        "ĩ"
      ],
      [
        "æ",
        "±"
      ],
      [
        "é",
        "»"
      ],
      [
        "åħ",
        "¶"
      ],
      [
        "æŀ",
        "ľ"
      ],
      [
        "ç¨",
        "®"
      ],
      [
        "ä½",
        "¿"
      ],
      [
        "çı",
        "¾"
      ],
      [
        "å",
        "ĸ"
      ],
      [
        "å",
        "»"
      ],
      [
        "éģ",
        "İ"
      ],
      [
        "æ",
        "¥"
      ],
      [
        "éĢ",
        "²"
      ],
      [
        "å",
        "ĳ"
      ],
      [
        "è",
        "£"
      ],
      [
        "æ",
        "ł"
      ],
      [
        "æ³",
        "ķ"
      ],
      [
        "ç",
        "¯"
      ],
      [
        "å",
        "Ł"
      ],
      [
        "éĿ",
        "¢"
      ],
      [
        "æĸ",
        "°"
      ],
      [
        "æ",
        "Ĥ"
      ],
      [
        "æ",
        "Ĺ"
      ],
      [
        "çµ",
        "¦"
      ],
      [
        "å¤",
        "©"
      ],
      [
        "å®",
        "ĥ"
      ],
      [
        "ç",
        "ľ"
      ],
      [
        "ĩ",
        "ī"
      ],
      [
        "å°",
        "ĩ"
      ],
      [
        "åĬ",
        "Ľ"
      ],
      [
        "çĲ",
        "Ĩ"
      ],
      [
        "è",
        "ģ"
      ],
      [
        "ç",
        "©"
      ],
      [
        "æ",
        "©"
      ],
      [
        "éľ",
        "Ģ"
      ],
      [
        "æĺ",
        "İ"
      ],
      [
        "æ",
        "´"
      ],
      [
        "å",
        "ģ"
      ],
      [
        "é",
        "Ļ"
      ],
      [
        "æ",
        "¸"
      ],
      [
        "æ",
        "²"
      ],
      [
        "åĲ",
        "Į"
      ],
      [
        "åĮ",
        "ĸ"
      ],
      [
        "æ",
        "Į"
      ],
      [
        "è",
        "¼"
      ],
      [
        "æĪ",
        "ĸ"
      ],
      [
        "åĬ",
        "ł"
      ],
      [
        "éĩ",
        "į"
      ],
      [
        "å¸",
        "¸"
      ],
      [
        "æĢ",
        "§"
      ],
      [
        "ä¿",
        "Ŀ"
      ],
      [
        "é«",
        "ĺ"
      ],
      [
        "æ",
        "ĭ"
      ],
      [
        "åı",
        "¥"
      ],
      [
        "åĽ",
        "ł"
      ],
      [
        "è",
        "¶"
      ],
      [
        "æĦ",
        "Ł"
      ],
      [
        "ä¹",
        "Ł"
      ],
      [
        "æ",
        "º"
      ],
      [
        "å®",
        "¶"
      ],
      [
        "µ",
        "·"
      ],
      [
        "ä¸",
        "»"
      ],
      [
        "èª",
        "ŀ"
      ],
      [
        "è",
        "ĳ"
      ],
      [
        "é¡",
        "ŀ"
      ],
      [
        "å",
        "İ"
      ],
      [
        "ç",
        "¿"
      ],
      [
        "åķ",
        "ı"
      ],
      [
        "è",
        "ī"
      ],
      [
        "çĦ",
        "¶"
      ],
      [
        "æ©",
        "Ł"
      ],
      [
        "ç«",
        "ł"
      ],
      [
        "ç",
        "·"
      ],
      [
        "å¾",
        "Ĺ"
      ],
      [
        "âĢ",
        "Ŀ"
      ],
      [
        "æĸĩ",
        "åŃĹ"
      ],
      [
        "æ",
        "ĩī"
      ],
      [
        "æĸĩ",
        "ç«ł"
      ],
      [
        "èĢ",
        "ħ"
      ],
      [
        "éĽ",
        "»"
      ],
      [
        "âĢ",
        "ľ"
      ],
      [
        "å",
        "ł"
      ],
      [
        "éľĢ",
        "è¦ģ"
      ],
      [
        "æĻ",
        "º"
      ],
      [
        "æħ",
        "§"
      ],
      [
        "æĬ",
        "Ģ"
      ],
      [
        "éº",
        "¼"
      ],
      [
        "è§",
        "£"
      ],
      [
        "å½",
        "±"
      ],
      [
        "å¼",
        "ı"
      ],
      [
        "åĵ",
        "ģ"
      ],
      [
        "é",
        "Ł"
      ],
      [
        "ç",
        "®"
      ],
      [
        "ä¹",
        "ĭ"
      ],
      [
        "æĻº",
        "æħ§"
      ],
      [
        "ç",
        "§"
      ],
      [
        "æĥ",
        "ħ"
      ],
      [
        "æĤ",
        "¨"
      ],
      [
        "ç¶",
        "ĵ"
      ],
      [
        "åº",
        "¦"
      ],
      [
        "èĢ",
        "Į"
      ],
      [
        "ç",
        "¢"
      ],
      [
        "éĸ",
        "ĵ"
      ],
      [
        "è«",
        "ĭ"
      ],
      [
        "èĳ",
        "Ĺ"
      ],
      [
        "å",
        "¢"
      ],
      [
        "ç",
        "¤"
      ],
      [
        "å¾",
        "Ī"
      ],
      [
        "è¡",
        "¨"
      ],
      [
        "æŃ",
        "¤"
      ],
      [
        "ç",
        "Ł"
      ],
      [
        "åľ",
        "ĭ"
      ],
      [
        "åħ",
        "¬"
      ],
      [
        "é»",
        "ŀ"
      ],
      [
        "è¨",
        "Ī"
      ],
      [
        "è¡",
        "ĵ"
      ],
      [
        "ä½¿",
        "çĶ¨"
      ],
      [
        "éĩ",
        "ı"
      ],
      [
        "èī",
        "²"
      ],
      [
        "ç",
        "³"
      ],
      [
        "æ°",
        "£"
      ],
      [
        "éĢĻ",
        "åĢĭ"
      ],
      [
        "è©",
        "ŀ"
      ],
      [
        "è",
        "Ļ"
      ],
      [
        "ç¾",
        "İ"
      ],
      [
        "åı",
        "ĸ"
      ],
      [
        "ç¿",
        "Ĵ"
      ],
      [
        "åĲ",
        "į"
      ],
      [
        "æ",
        "Ŀ"
      ],
      [
        "åĲ",
        "Ī"
      ],
      [
        "è©",
        "²"
      ],
      [
        "å¹",
        "´"
      ],
      [
        "ä½",
        "Ĩ"
      ],
      [
        "è",
        "·"
      ],
      [
        "æ¥",
        "Ń"
      ],
      [
        "æ",
        "®"
      ],
      [
        "é",
        "¤"
      ],
      [
        "æ",
        "¬"
      ],
      [
        "ä¾",
        "Ľ"
      ],
      [
        "å",
        "Ĥ"
      ],
      [
        "æĸ",
        "Ļ"
      ],
      [
        "å¾",
        "Į"
      ],
      [
        "å¾",
        "ŀ"
      ],
      [
        "éĤ",
        "Ħ"
      ],
      [
        "äº",
        "ĭ"
      ],
      [
        "æī",
        "Ģ"
      ],
      [
        "ä»¥",
        "ä¸ĭ"
      ],
      [
        "æĵ",
        "ļ"
      ],
      [
        "åķı",
        "é¡Į"
      ],
      [
        "å¯",
        "¦"
      ],
      [
        "èĪ",
        "ĩ"
      ],
      [
        "çĽ",
        "¸"
      ],
      [
        "æĦ",
        "ı"
      ],
      [
        "å¿",
        "ĥ"
      ],
      [
        "çĲ",
        "ĥ"
      ],
      [
        "ä¸Ģ",
        "äºĽ"
      ],
      [
        "é",
        "ĥ½"
      ],
      [
        "æıĲ",
        "ä¾Ľ"
      ],
      [
        "éĢ²",
        "è¡Į"
      ],
      [
        "æ´",
        "»"
      ],
      [
        "åĮ",
        "ħ"
      ],
      [
        "é",
        "ĥ"
      ],
      [
        "æł",
        "¹"
      ],
      [
        "è",
        "Ĥ"
      ],
      [
        "æ",
        "¡"
      ],
      [
        "æ",
        "¼"
      ],
      [
        "é",
        "Ĩ"
      ],
      [
        "ä",
        "¼"
      ],
      [
        "åħ",
        "¥"
      ],
      [
        "Ĵ",
        "°"
      ],
      [
        "åı¥",
        "åŃĲ"
      ],
      [
        "å",
        "ĥ"
      ],
      [
        "é£",
        "Ł"
      ],
      [
        "åħ",
        "¨"
      ],
      [
        "é",
        "¦"
      ],
      [
        "è¿",
        "°"
      ],
      [
        "äºº",
        "å·¥"
      ],
      [
        "å¤",
        "ĸ"
      ],
      [
        "ç¨",
        "ĭ"
      ],
      [
        "æĥ",
        "³"
      ],
      [
        "éĸ",
        "ĭ"
      ],
      [
        "éĿ",
        "ŀ"
      ],
      [
        "çī",
        "¹"
      ],
      [
        "äººå·¥",
        "æĻºæħ§"
      ],
      [
        "åħ",
        "§"
      ],
      [
        "å±",
        "ķ"
      ],
      [
        "çķ",
        "¶"
      ],
      [
        "æ",
        "·"
      ],
      [
        "è®",
        "Ĭ"
      ],
      [
        "æŃ",
        "£"
      ],
      [
        "æł¹",
        "æĵļ"
      ],
      [
        "åİ",
        "»"
      ],
      [
        "æ",
        "Ł"
      ],
      [
        "æ°",
        "´"
      ],
      [
        "æ¯",
        "Ķ"
      ],
      [
        "èª",
        "ª"
      ],
      [
        "æ®",
        "µ"
      ],
      [
        "åŃ¸",
        "ç¿Ĵ"
      ],
      [
        "æĺ¯",
        "ä¸Ģ"
      ],
      [
        "è®",
        "ĵ"
      ],
      [
        "è",
        "¢"
      ],
      [
        "ç¢",
        "º"
      ],
      [
        "å¯",
        "«"
      ],
      [
        "åĬ",
        "©"
      ],
      [
        "ç",
        "İ"
      ],
      [
        "åĪ",
        "¥"
      ],
      [
        "è¨",
        "Ĭ"
      ],
      [
        "ä»",
        "Ģ"
      ],
      [
        "è",
        "»"
      ],
      [
        "ä»Ģ",
        "éº¼"
      ],
      [
        "å",
        "ŀ"
      ],
      [
        "æķ",
        "¸"
      ],
      [
        "æľ",
        "¬"
      ],
      [
        "ç",
        "į"
      ],
      [
        "å»",
        "º"
      ],
      [
        "çĶ",
        "¢"
      ],
      [
        "åħ",
        "·"
      ],
      [
        "éģ",
        "ĵ"
      ],
      [
        "çµ",
        "Ĳ"
      ],
      [
        "å",
        "Ĩ"
      ],
      [
        "å¸",
        "Ĥ"
      ],
      [
        "ç¯",
        "ĩ"
      ],
      [
        "è",
        "º"
      ],
      [
        "é",
        "į"
      ],
      [
        "ç",
        "Ĵ°"
      ],
      [
        "æ¡",
        "Ī"
      ],
      [
        "è",
        "µ·"
      ],
      [
        "æĬĢ",
        "è¡ĵ"
      ],
      [
        "éĥ",
        "¨"
      ],
      [
        "æ",
        "µ"
      ],
      [
        "çľ",
        "ĭ"
      ],
      [
        "è©",
        "±"
      ],
      [
        "ķ",
        "·"
      ],
      [
        "é",
        "ķ·"
      ],
      [
        "åı",
        "Ĭ"
      ],
      [
        "è£",
        "¡"
      ],
      [
        "ç",
        "¸"
      ],
      [
        "éĤ",
        "£"
      ],
      [
        "å",
        "Ļ"
      ],
      [
        "ä½",
        "ķ"
      ],
      [
        "éĿŀ",
        "å¸¸"
      ],
      [
        "åĭ",
        "Ļ"
      ],
      [
        "éģ",
        "¸"
      ],
      [
        "ç®",
        "Ĺ"
      ],
      [
        "æ¯",
        "ı"
      ],
      [
        "èº",
        "«"
      ],
      [
        "å¹",
        "«"
      ],
      [
        "è¢",
        "«"
      ],
      [
        "éģ",
        "©"
      ],
      [
        "å°",
        "ĳ"
      ],
      [
        "å·",
        "±"
      ],
      [
        "éĢ",
        "ı"
      ],
      [
        "æĭ",
        "¬"
      ],
      [
        "è",
        "Ĳ"
      ],
      [
        "èĩª",
        "å·±"
      ],
      [
        "çĦ",
        "¡"
      ],
      [
        "ä»ĸ",
        "åĢĳ"
      ],
      [
        "å®",
        "¹"
      ],
      [
        "è",
        "¬"
      ],
      [
        "åı",
        "Ĺ"
      ],
      [
        "åı¯",
        "èĥ½"
      ],
      [
        "æŃ",
        "¡"
      ],
      [
        "è³ĩ",
        "è¨Ĭ"
      ],
      [
        "è",
        "ı"
      ],
      [
        "è",
        "±"
      ],
      [
        "ç",
        "ĭ"
      ],
      [
        "é",
        "Į"
      ],
      [
        "åī",
        "į"
      ],
      [
        "éĨ",
        "«"
      ],
      [
        "§",
        "ĭ"
      ],
      [
        "éĢ",
        "ļ"
      ],
      [
        "åł",
        "´"
      ],
      [
        "åĻ",
        "¨"
      ],
      [
        "èĻ",
        "ķ"
      ],
      [
        "å",
        "£"
      ],
      [
        "éł",
        "ĺ"
      ],
      [
        "¢",
        "¨"
      ],
      [
        "åŀ",
        "ĭ"
      ],
      [
        "åĸ",
        "ľ"
      ],
      [
        "ä½",
        "į"
      ],
      [
        "éĽ»",
        "å½±"
      ],
      [
        "çŃ",
        "Ķ"
      ],
      [
        "è³",
        "ª"
      ],
      [
        "é",
        "©"
      ],
      [
        "é",
        "¢¨"
      ],
      [
        "èŃ",
        "°"
      ],
      [
        "åĪ",
        "©"
      ],
      [
        "åħ",
        "©"
      ],
      [
        "äº",
        "¤"
      ],
      [
        "æĹ",
        "¥"
      ],
      [
        "ç§",
        "ĳ"
      ],
      [
        "éĢĻ",
        "äºĽ"
      ],
      [
        "éĢı",
        "éģİ"
      ],
      [
        "å¢",
        "ĥ"
      ],
      [
        "è³ĩ",
        "æĸĻ"
      ],
      [
        "æī",
        "ĭ"
      ],
      [
        "éŁ",
        "¿"
      ],
      [
        "ç",
        "Ī"
      ],
      [
        "åģ",
        "¥"
      ],
      [
        "çĽ",
        "®"
      ],
      [
        "ä¾",
        "ĭ"
      ],
      [
        "ç",
        "Ĺ"
      ],
      [
        "é",
        "ħ"
      ],
      [
        "éĩį",
        "è¦ģ"
      ],
      [
        "å¦Ĥ",
        "æŀľ"
      ],
      [
        "è",
        "Ĺ"
      ],
      [
        "ä»",
        "£"
      ],
      [
        "æĮ",
        "ģ"
      ],
      [
        "çĶŁ",
        "æĪĲ"
      ],
      [
        "è«",
        "ĸ"
      ],
      [
        "å",
        "Ħ"
      ],
      [
        "ä»",
        "»"
      ],
      [
        "åĮħ",
        "æĭ¬"
      ],
      [
        "çĻ¼",
        "å±ķ"
      ],
      [
        "åŁ",
        "Ł"
      ],
      [
        "°",
        "¡"
      ],
      [
        "åĽ",
        "ŀ"
      ],
      [
        "åı",
        "¸"
      ],
      [
        "æķ",
        "Ī"
      ],
      [
        "å¥½",
        "çļĦ"
      ],
      [
        "è¨",
        "Ģ"
      ],
      [
        "å°ı",
        "æĺİ"
      ],
      [
        "æ¨",
        "Ļ"
      ],
      [
        "å°",
        "±"
      ],
      [
        "æ²",
        "Ĵ"
      ],
      [
        "è§",
        "Ģ"
      ],
      [
        "å¹",
        "³"
      ],
      [
        "æ±",
        "Ĥ"
      ],
      [
        "çµ",
        "±"
      ],
      [
        "è",
        "Ĭ"
      ],
      [
        "æĶ",
        "¹"
      ],
      [
        "æĶ",
        "¾"
      ],
      [
        "æİ",
        "¨"
      ],
      [
        "æľ",
        "ª"
      ],
      [
        "è¨",
        "Ń"
      ],
      [
        "è·",
        "¯"
      ],
      [
        "åº",
        "·"
      ],
      [
        "ä¸",
        "ī"
      ],
      [
        "ç¸",
        "½"
      ],
      [
        "çŁ",
        "¥"
      ],
      [
        "æ±",
        "º"
      ],
      [
        "ä»",
        "¶"
      ],
      [
        "ç",
        "¬"
      ],
      [
        "æľ",
        "Ł"
      ],
      [
        "ç",
        "°¡"
      ],
      [
        "åĸľ",
        "æŃ¡"
      ],
      [
        "å¤",
        "ł"
      ],
      [
        "èŃ",
        "ĺ"
      ],
      [
        "åħ¬",
        "åı¸"
      ],
      [
        "ç",
        "¥"
      ],
      [
        "æı",
        "ı"
      ],
      [
        "æĸ",
        "·"
      ],
      [
        "æ",
        "µ·"
      ],
      [
        "ç¶",
        "²"
      ],
      [
        "ç¾",
        "©"
      ],
      [
        "æ¨",
        "Ĥ"
      ],
      [
        "å¼",
        "·"
      ],
      [
        "éģ",
        "Ĭ"
      ],
      [
        "çµ¦",
        "å®ļ"
      ],
      [
        "äºº",
        "é¡ŀ"
      ],
      [
        "ç¤",
        "¾"
      ],
      [
        "æ",
        "¶"
      ],
      [
        "ç¯",
        "Ģ"
      ],
      [
        "æ",
        "»"
      ],
      [
        "æ¥",
        "µ"
      ],
      [
        "ç",
        "ł"
      ],
      [
        "æ¨",
        "£"
      ],
      [
        "æ¸",
        "Ľ"
      ],
      [
        "éłĺ",
        "åŁŁ"
      ],
      [
        "å®",
        "ī"
      ],
      [
        "ç³",
        "»"
      ],
      [
        "éģ",
        "Ķ"
      ],
      [
        "çĶŁ",
        "æ´»"
      ],
      [
        "å¹«",
        "åĬ©"
      ],
      [
        "çĻ",
        "Ĥ"
      ],
      [
        "åĸ",
        "®"
      ],
      [
        "æľ",
        "į"
      ],
      [
        "æ·",
        "±"
      ],
      [
        "çĶ",
        "±"
      ],
      [
        "åĽł",
        "æŃ¤"
      ],
      [
        "ä¸į",
        "åĲĮ"
      ],
      [
        "æŃ",
        "¥"
      ],
      [
        "å·¥",
        "ä½ľ"
      ],
      [
        "æĺ",
        "Ł"
      ],
      [
        "éŁ",
        "³"
      ],
      [
        "å¤",
        "ª"
      ],
      [
        "æµ",
        "ģ"
      ],
      [
        "ç",
        "ĸ"
      ],
      [
        "ç",
        "ģ"
      ],
      [
        "ä¸Ń",
        "çļĦ"
      ],
      [
        "è»",
        "Ĭ"
      ],
      [
        "ä¸",
        "ĸ"
      ],
      [
        "ç",
        "Ĩ"
      ],
      [
        "æ²Ĵ",
        "æľī"
      ],
      [
        "ç",
        "¹"
      ],
      [
        "æ",
        "¿"
      ],
      [
        "å·",
        "²"
      ],
      [
        "å¸",
        "¶"
      ],
      [
        "æıĲ",
        "åıĸ"
      ],
      [
        "è",
        "ĺ"
      ],
      [
        "åĽł",
        "çĤº"
      ],
      [
        "æĻ",
        "¯"
      ],
      [
        "æ³",
        "¨"
      ],
      [
        "åı",
        "ĭ"
      ],
      [
        "å°",
        "İ"
      ],
      [
        "æıı",
        "è¿°"
      ],
      [
        "åģ",
        "ļ"
      ],
      [
        "æ¬",
        "¡"
      ],
      [
        "æ",
        "ļ"
      ],
      [
        "ç",
        "ĩ"
      ],
      [
        "æ¨",
        "¡"
      ],
      [
        "åģ¥",
        "åº·"
      ],
      [
        "è©",
        "¦"
      ],
      [
        "å",
        "Ĺ"
      ],
      [
        "éį",
        "µ"
      ],
      [
        "åĪ",
        "¶"
      ],
      [
        "å®ĥ",
        "åĢĳ"
      ],
      [
        "æıĲ",
        "é«ĺ"
      ],
      [
        "èª",
        "į"
      ],
      [
        "èĩª",
        "çĦ¶"
      ],
      [
        "éģ",
        "ĭ"
      ],
      [
        "ãĢ",
        "ĭ"
      ],
      [
        "ãĢ",
        "Ĭ"
      ],
      [
        "èŃ",
        "·"
      ],
      [
        "å¦Ĥ",
        "ä½ķ"
      ],
      [
        "æł",
        "¼"
      ],
      [
        "å¢",
        "ŀ"
      ],
      [
        "è",
        "ħ"
      ],
      [
        "æĻĤ",
        "éĸĵ"
      ],
      [
        "æĽ´",
        "åĬł"
      ],
      [
        "å¥",
        "¹"
      ],
      [
        "ç¤",
        "º"
      ],
      [
        "èĲ",
        "½"
      ],
      [
        "çĴ°",
        "å¢ĥ"
      ],
      [
        "æº",
        "Ĳ"
      ],
      [
        "ä¸»",
        "è¦ģ"
      ],
      [
        "åĲ",
        "Ħ"
      ],
      [
        "å",
        "¡"
      ],
      [
        "åĵ",
        "¡"
      ],
      [
        "æĵ",
        "ĩ"
      ],
      [
        "éĹľ",
        "éįµ"
      ],
      [
        "ç",
        "²"
      ],
      [
        "æĩī",
        "è©²"
      ],
      [
        "æĮ",
        "ĩ"
      ],
      [
        "éģ¸",
        "æĵĩ"
      ],
      [
        "èĥ½",
        "å¤ł"
      ],
      [
        "åĲĮ",
        "æĻĤ"
      ],
      [
        "éĢ",
        "ł"
      ],
      [
        "åī",
        "µ"
      ],
      [
        "æ¼",
        "Ķ"
      ],
      [
        "æĸ¹",
        "å¼ı"
      ],
      [
        "åĲ",
        "ĳ"
      ],
      [
        "è¿",
        "ĳ"
      ],
      [
        "è",
        "ĸ"
      ],
      [
        "åħ",
        "ī"
      ],
      [
        "çµ",
        "Ħ"
      ],
      [
        "åħ§",
        "å®¹"
      ],
      [
        "ç¯ĩ",
        "æĸĩç«ł"
      ],
      [
        "äºº",
        "åĢĳ"
      ],
      [
        "ç",
        "½"
      ],
      [
        "æĦ",
        "Ľ"
      ],
      [
        "æī",
        "¾"
      ],
      [
        "ç©",
        "¶"
      ],
      [
        "çķ",
        "Į"
      ],
      [
        "èªŀ",
        "è¨Ģ"
      ],
      [
        "èª",
        "¿"
      ],
      [
        "å½",
        "¢"
      ],
      [
        "åĳ",
        "Ĭ"
      ],
      [
        "ç´",
        "ħ"
      ],
      [
        "ï¼",
        "Ľ"
      ],
      [
        "åĤ",
        "³"
      ],
      [
        "ç©",
        "º"
      ],
      [
        "æĺ¯",
        "ä¸ĢåĢĭ"
      ],
      [
        "èĢ",
        "ĥ"
      ],
      [
        "éĹľ",
        "æĸ¼"
      ],
      [
        "è¦",
        "ĸ"
      ],
      [
        "æľª",
        "ä¾Ĩ"
      ],
      [
        "ç«",
        "ĭ"
      ],
      [
        "èĬ",
        "±"
      ],
      [
        "åı",
        "£"
      ],
      [
        "ä¾ĭ",
        "å¦Ĥ"
      ],
      [
        "æ",
        "½"
      ],
      [
        "é©",
        "Ĺ"
      ],
      [
        "éł",
        "Ĳ"
      ],
      [
        "åİ",
        "Ł"
      ],
      [
        "è¨Ī",
        "ç®Ĺ"
      ],
      [
        "çĹ",
        "ħ"
      ],
      [
        "ç",
        "º"
      ],
      [
        "æĸ¹",
        "æ³ķ"
      ],
      [
        "æĸ¹",
        "éĿ¢"
      ],
      [
        "ï¼",
        "ī"
      ],
      [
        "é¤",
        "Ĳ"
      ],
      [
        "æĢ",
        "Ŀ"
      ],
      [
        "Ķ",
        "ç©¶"
      ],
      [
        "ä¸",
        "Ķ"
      ],
      [
        "éĮ",
        "¯"
      ],
      [
        "ç",
        "±"
      ],
      [
        "å®",
        "Į"
      ],
      [
        "åĹ",
        "İ"
      ],
      [
        "è",
        "ĭ"
      ],
      [
        "é¦",
        "ĸ"
      ],
      [
        "åĪ°",
        "äºĨ"
      ],
      [
        "è¨",
        "±"
      ],
      [
        "åħ¶",
        "ä»ĸ"
      ],
      [
        "ç®",
        "¡"
      ],
      [
        "åĳ",
        "³"
      ],
      [
        "ä¸»",
        "é¡Į"
      ],
      [
        "è¶",
        "Ĭ"
      ],
      [
        "è©",
        "ķ"
      ],
      [
        "ä»¥",
        "åıĬ"
      ],
      [
        "çļĦæ",
        "Ļ"
      ],
      [
        "å»",
        "£"
      ],
      [
        "éĩ",
        "ĳ"
      ],
      [
        "è¦",
        "º"
      ],
      [
        "æ©Ł",
        "åĻ¨"
      ],
      [
        "ç´",
        "ł"
      ],
      [
        "å¼",
        "ķ"
      ],
      [
        "æ",
        "¢"
      ],
      [
        "æ",
        "ģ"
      ],
      [
        "åĪ",
        "Ĺ"
      ],
      [
        "è¼",
        "ķ"
      ],
      [
        "å¿",
        "«"
      ],
      [
        "ç",
        "ħ"
      ],
      [
        "åħ",
        "Ī"
      ],
      [
        "æ¸",
        "¬"
      ],
      [
        "åŁ",
        "İ"
      ],
      [
        "åĬ",
        "Ł"
      ],
      [
        "æ¸",
        "ħ"
      ],
      [
        "æĪ",
        "°"
      ],
      [
        "å®",
        "¢"
      ],
      [
        "å",
        "Ŀ"
      ],
      [
        "è®",
        "Ģ"
      ],
      [
        "æ",
        "ĳ"
      ],
      [
        "ï¼",
        "Ī"
      ],
      [
        "åĢĭ",
        "äºº"
      ],
      [
        "åĪĨ",
        "é¡ŀ"
      ],
      [
        "éĻ",
        "½"
      ],
      [
        "æº",
        "ĸ"
      ],
      [
        "å",
        "§ĭ"
      ],
      [
        "åŁ",
        "º"
      ],
      [
        "ä»",
        "Ĭ"
      ],
      [
        "çļĦæ",
        "ķ"
      ],
      [
        "åĥ",
        "¹"
      ],
      [
        "æĩī",
        "çĶ¨"
      ],
      [
        "è",
        "¾"
      ],
      [
        "é",
        "ĺ"
      ],
      [
        "æħ",
        "ĭ"
      ],
      [
        "çº",
        "Į"
      ],
      [
        "å¹",
        "¾"
      ],
      [
        "æº",
        "«"
      ],
      [
        "æķ",
        "Ļ"
      ],
      [
        "æŀ",
        "Ĳ"
      ],
      [
        "åĢ",
        "Ļ"
      ],
      [
        "åį",
        "Ģ"
      ],
      [
        "æĽ",
        "¸"
      ],
      [
        "çŁ",
        "Ń"
      ],
      [
        "æŃ",
        "·"
      ],
      [
        "ï¼",
        "ģ"
      ],
      [
        "æľ",
        "ĭ"
      ],
      [
        "åĵ",
        "ª"
      ],
      [
        "è",
        "¥"
      ],
      [
        "åħ",
        "±"
      ],
      [
        "ä¸ĸ",
        "çķĮ"
      ],
      [
        "ä½Ĩ",
        "æĺ¯"
      ],
      [
        "åŃ",
        "ĺ"
      ],
      [
        "ç´",
        "Ħ"
      ],
      [
        "åĲ",
        "«"
      ],
      [
        "è¨Ń",
        "è¨Ī"
      ],
      [
        "è£",
        "½"
      ],
      [
        "åħ",
        "ĥ"
      ],
      [
        "æĹ",
        "ħ"
      ],
      [
        "é",
        "Ĭ"
      ],
      [
        "åķ",
        "Ĩ"
      ],
      [
        "æľ",
        "Ī"
      ],
      [
        "åı",
        "ª"
      ],
      [
        "çļĦå",
        "½"
      ],
      [
        "ç´",
        "°"
      ],
      [
        "æľĭ",
        "åıĭ"
      ],
      [
        "ç·",
        "ļ"
      ],
      [
        "èĻķ",
        "çĲĨ"
      ],
      [
        "å°",
        "Ī"
      ],
      [
        "è£",
        "Ŀ"
      ],
      [
        "åħ",
        "ĭ"
      ],
      [
        "æĸĩ",
        "åĮĸ"
      ],
      [
        "å»º",
        "èŃ°"
      ],
      [
        "åĪĨ",
        "æŀĲ"
      ],
      [
        "åı",
        "²"
      ],
      [
        "çİ",
        "ĩ"
      ],
      [
        "ä¸Ģ",
        "ä¸ĭ"
      ],
      [
        "æ»",
        "¿"
      ],
      [
        "æĶ",
        "¯"
      ],
      [
        "æ¸Ľ",
        "å°ĳ"
      ],
      [
        "æķ",
        "´"
      ],
      [
        "ä¸Ń",
        "åľĭ"
      ],
      [
        "éĢĻ",
        "ç¯ĩæĸĩç«ł"
      ],
      [
        "ä¹ĭ",
        "ä¸Ģ"
      ],
      [
        "é",
        "Ń"
      ],
      [
        "çī",
        "ĩ"
      ],
      [
        "è¶",
        "³"
      ],
      [
        "çļĦæ",
        "ĥ"
      ],
      [
        "èĩ",
        "´"
      ],
      [
        "é",
        "¬"
      ],
      [
        "åī",
        "ĩ"
      ],
      [
        "æ³",
        "ģ"
      ],
      [
        "ä¿Ŀ",
        "èŃ·"
      ],
      [
        "ç©",
        "į"
      ],
      [
        "åĲ",
        "¦"
      ],
      [
        "ç¬",
        "¬"
      ],
      [
        "æİ",
        "¢"
      ],
      [
        "çł",
        "Ķç©¶"
      ],
      [
        "å½±",
        "éŁ¿"
      ],
      [
        "å·²",
        "ç¶ĵ"
      ],
      [
        "è¨±",
        "å¤ļ"
      ],
      [
        "ĺ",
        "è¦ģ"
      ],
      [
        "é£",
        "²"
      ],
      [
        "è§",
        "Ĵ"
      ],
      [
        "ç¥",
        "ŀ"
      ],
      [
        "çĶ¢",
        "åĵģ"
      ],
      [
        "èı",
        "ľ"
      ],
      [
        "2",
        "0"
      ],
      [
        "æ",
        "£"
      ],
      [
        "åħ©",
        "åĢĭ"
      ],
      [
        "æľ",
        "Ľ"
      ],
      [
        "ç³»",
        "çµ±"
      ],
      [
        "è¬",
        "Ŀ"
      ],
      [
        "çļĦå",
        "ķ"
      ],
      [
        "ç³",
        "ĸ"
      ],
      [
        "æ",
        "Ĳ"
      ],
      [
        "è¼",
        "¸"
      ],
      [
        "è¦",
        "ı"
      ],
      [
        "åı",
        "į"
      ],
      [
        "äºĨ",
        "ä¸Ģ"
      ],
      [
        "ç¨ĭ",
        "å¼ı"
      ],
      [
        "èĢ",
        "ģ"
      ],
      [
        "éļ",
        "ª"
      ],
      [
        "æİ",
        "¥"
      ],
      [
        "éĨ«",
        "çĻĤ"
      ],
      [
        "æŃ¤",
        "å¤ĸ"
      ],
      [
        "ä»",
        "ĭ"
      ],
      [
        "è±",
        "¡"
      ],
      [
        "åĬ",
        "ĥ"
      ],
      [
        "ç",
        "¦"
      ],
      [
        "çĭ",
        "Ĺ"
      ],
      [
        "çĻ",
        "½"
      ],
      [
        "æĽ´",
        "å¤ļ"
      ],
      [
        "çļĦ",
        "äºº"
      ],
      [
        "éĢ",
        "Ł"
      ],
      [
        "åĽŀ",
        "çŃĶ"
      ],
      [
        "æİ",
        "¡"
      ],
      [
        "è¶",
        "£"
      ],
      [
        "åł",
        "±"
      ],
      [
        "ç",
        "ĥ"
      ],
      [
        "æĺ¯ä¸Ģ",
        "ç¨®"
      ],
      [
        "è",
        "ĥ"
      ],
      [
        "çľ",
        "Ł"
      ],
      [
        "åĲ",
        "ĥ"
      ],
      [
        "ä¿Ŀ",
        "æĮģ"
      ],
      [
        "ä»",
        "½"
      ],
      [
        "éĩ",
        "ĭ"
      ],
      [
        "åħ¨",
        "çĲĥ"
      ],
      [
        "éł",
        "Ń"
      ],
      [
        "æĸ",
        "¯"
      ],
      [
        "æĪĲ",
        "çĤº"
      ],
      [
        "è§£",
        "æ±º"
      ],
      [
        "ä¿",
        "¡"
      ],
      [
        "çĽ",
        "´"
      ],
      [
        "æĺ",
        "ĵ"
      ],
      [
        "Â",
        "·"
      ],
      [
        "æİ",
        "Ĵ"
      ],
      [
        "çĨ",
        "±"
      ],
      [
        "éł",
        "ħ"
      ],
      [
        "è¥",
        "¿"
      ],
      [
        "æ´»",
        "åĭķ"
      ],
      [
        "åĢ",
        "¼"
      ],
      [
        "æľį",
        "åĭĻ"
      ],
      [
        "æĸ",
        "½"
      ],
      [
        "åı",
        "ĥ"
      ],
      [
        "ħ",
        "äºĭ"
      ],
      [
        "ç¤¾",
        "æľĥ"
      ],
      [
        "éĽ",
        "£"
      ],
      [
        "åĨ",
        "į"
      ],
      [
        "å±",
        "±"
      ],
      [
        "è²",
        "·"
      ],
      [
        "æ",
        "§ĭ"
      ],
      [
        "è¼",
        "ĥ"
      ],
      [
        "å",
        "ĺ"
      ],
      [
        "éļ",
        "Ľ"
      ],
      [
        "è¦",
        "ĭ"
      ],
      [
        "éģĭ",
        "åĭķ"
      ],
      [
        "æħ",
        "®"
      ],
      [
        "çĻ¼",
        "çı¾"
      ],
      [
        "çļĦ",
        "ä¸Ģ"
      ],
      [
        "å",
        "Ķ"
      ],
      [
        "åĥ",
        "ı"
      ],
      [
        "åħ",
        "ħ"
      ],
      [
        "æ",
        "ª"
      ],
      [
        "èģ",
        "½"
      ],
      [
        "ä¾",
        "¿"
      ],
      [
        "æĪĸ",
        "èĢħ"
      ],
      [
        "çļĦæ",
        "Ħ"
      ],
      [
        "èº«",
        "é«Ķ"
      ],
      [
        "å¸",
        "«"
      ],
      [
        "éļ",
        "¨"
      ],
      [
        "å®ī",
        "åħ¨"
      ],
      [
        "1",
        "0"
      ],
      [
        "è©",
        "©"
      ],
      [
        "çµ¦",
        "æĪĳ"
      ],
      [
        "è®Ĭ",
        "åĮĸ"
      ],
      [
        "èĩ",
        "³"
      ],
      [
        "ç½",
        "®"
      ],
      [
        "åį",
        "³"
      ],
      [
        "åħ¶",
        "ä¸Ń"
      ],
      [
        "çļĦæĥ",
        "ħ"
      ],
      [
        "è¨",
        "ĺ"
      ],
      [
        "å°",
        "ĭ"
      ],
      [
        "éħ",
        "į"
      ],
      [
        "çı¾",
        "åľ¨"
      ],
      [
        "è²",
        "ĵ"
      ],
      [
        "çį",
        "²"
      ],
      [
        "çĭ",
        "Ģ"
      ],
      [
        "ãĢĤ",
        "âĢĿ"
      ],
      [
        "ä¹ĭ",
        "éĸĵ"
      ],
      [
        "æ¢",
        "Ŀ"
      ],
      [
        "èªį",
        "çĤº"
      ],
      [
        "åŁİ",
        "å¸Ĥ"
      ],
      [
        "éº",
        "Ĺ"
      ],
      [
        "å¼",
        "µ"
      ],
      [
        "ç·",
        "¨"
      ],
      [
        "æĶ",
        "¶"
      ],
      [
        "å¤©",
        "æ°£"
      ],
      [
        "æĪ",
        "¶"
      ],
      [
        "çļĦå½",
        "±"
      ],
      [
        "éĤ£",
        "éº¼"
      ],
      [
        "ç·",
        "´"
      ],
      [
        "èĤ",
        "²"
      ],
      [
        "çĽ¸",
        "éĹľ"
      ],
      [
        "è",
        "Ĩ"
      ],
      [
        "äº",
        "«"
      ],
      [
        "æĬ",
        "Ĭ"
      ],
      [
        "å¸¶",
        "ä¾Ĩ"
      ],
      [
        "ç²",
        "¾"
      ],
      [
        "è",
        "Ħ"
      ],
      [
        "èĺ",
        "ĭ"
      ],
      [
        "åĤ",
        "Ļ"
      ],
      [
        "çĴ°",
        "ä¿Ŀ"
      ],
      [
        "éļ",
        "Ĭ"
      ],
      [
        "èĥ½",
        "åĬĽ"
      ],
      [
        "èĺĭ",
        "æŀľ"
      ],
      [
        "äº",
        "Į"
      ],
      [
        "åľ",
        "Ĵ"
      ],
      [
        "æĶ",
        "¿"
      ],
      [
        "åĲ",
        "¸"
      ],
      [
        "éĸ",
        "Ģ"
      ],
      [
        "å¾Ī",
        "å¤ļ"
      ],
      [
        "åı",
        "¤"
      ],
      [
        "çŃ",
        "ĸ"
      ],
      [
        "è",
        "¤"
      ],
      [
        "è³",
        "¼"
      ],
      [
        "èĪ",
        "Ī"
      ],
      [
        "ç¶",
        "Ń"
      ],
      [
        "å¥",
        "³"
      ],
      [
        "ç",
        "ŀ"
      ],
      [
        "æĳ",
        "ĺè¦ģ"
      ],
      [
        "åħ·",
        "æľī"
      ],
      [
        "èģ",
        "ŀ"
      ],
      [
        "åĭķ",
        "çī©"
      ],
      [
        "åĳ",
        "½"
      ],
      [
        "ç¨",
        "±"
      ],
      [
        "ä½",
        "İ"
      ],
      [
        "å¤",
        "±"
      ],
      [
        "èĩªå·±",
        "çļĦ"
      ],
      [
        "æŁ",
        "¥"
      ],
      [
        "ç¶²",
        "è·¯"
      ],
      [
        "æ¬",
        "¾"
      ],
      [
        "çį",
        "¨"
      ],
      [
        "æ²",
        "»"
      ],
      [
        "æ",
        "¤"
      ],
      [
        "è",
        "½"
      ],
      [
        "ç",
        "ĳ"
      ],
      [
        "éŁ³",
        "æ¨Ĥ"
      ],
      [
        "éĸĭ",
        "å§ĭ"
      ],
      [
        "è¨",
        "´"
      ],
      [
        "çļĦåķ",
        "ı"
      ],
      [
        "æŃ",
        "Į"
      ],
      [
        "åħ",
        "į"
      ],
      [
        "çļĦå½±",
        "éŁ¿"
      ],
      [
        "èĸ",
        "¦"
      ],
      [
        "çµ¦",
        "åĩº"
      ],
      [
        "å°į",
        "æĸ¼"
      ],
      [
        "éĢĻ",
        "ç¨®"
      ],
      [
        "é",
        "§"
      ],
      [
        "çļĦæĻ",
        "Ĥ"
      ],
      [
        "åĦ",
        "ª"
      ],
      [
        "çŃĶ",
        "æ¡Ī"
      ],
      [
        "ç´",
        "¹"
      ],
      [
        "æī",
        "į"
      ],
      [
        "ç§ĳ",
        "æĬĢ"
      ],
      [
        "ä»ĭ",
        "ç´¹"
      ],
      [
        "æ¶",
        "Ī"
      ],
      [
        "å°İ",
        "èĩ´"
      ],
      [
        "ä»»",
        "åĭĻ"
      ],
      [
        "è",
        "į"
      ],
      [
        "åı¥",
        "è©±"
      ],
      [
        "çļĦåķı",
        "é¡Į"
      ],
      [
        "åħ·",
        "é«Ķ"
      ],
      [
        "èª",
        "¤"
      ],
      [
        "ä¸Ń",
        "æıĲåıĸ"
      ],
      [
        "è¡¨",
        "éģĶ"
      ],
      [
        "æĽ´",
        "å¥½"
      ],
      [
        "åŃ",
        "£"
      ],
      [
        "æ¨¡",
        "åŀĭ"
      ],
      [
        "è¨Īç®Ĺ",
        "æ©Ł"
      ],
      [
        "çļĦ",
        "æĸĩåŃĹ"
      ],
      [
        "å¯",
        "Į"
      ],
      [
        "è½",
        "ī"
      ],
      [
        "è",
        "µ"
      ],
      [
        "èĭ",
        "±"
      ],
      [
        "çĶ",
        "·"
      ],
      [
        "è",
        "Ľ"
      ],
      [
        "æĥħ",
        "æĦŁ"
      ],
      [
        "æİ¨",
        "èĸ¦"
      ],
      [
        "éĽ",
        "Ĩ"
      ],
      [
        "è³",
        "½"
      ],
      [
        "çĲĨ",
        "è§£"
      ],
      [
        "èģ",
        "¯"
      ],
      [
        "è",
        "Į"
      ],
      [
        "è¨",
        "İ"
      ],
      [
        "æī",
        "ĵ"
      ],
      [
        "çļĦæ",
        "ĩī"
      ],
      [
        "èĻ",
        "Ł"
      ],
      [
        "éĻ",
        "¤"
      ],
      [
        "ç©į",
        "æ¥µ"
      ],
      [
        "æľĢ",
        "è¿ĳ"
      ],
      [
        "æĺ¯",
        "åĲ¦"
      ],
      [
        "åĭ",
        "¢"
      ],
      [
        "ä¸į",
        "æĸ·"
      ],
      [
        "éĢļ",
        "å¸¸"
      ],
      [
        "è²",
        "»"
      ],
      [
        "å¯¦",
        "çı¾"
      ],
      [
        "åĲĦ",
        "ç¨®"
      ],
      [
        "è¬",
        "Ľ"
      ],
      [
        "é¦",
        "Ļ"
      ],
      [
        "æĪĳåĢĳ",
        "çļĦ"
      ],
      [
        "è",
        "ŀ"
      ],
      [
        "çŀ",
        "Ń"
      ],
      [
        "ç§ĳ",
        "åŃ¸"
      ],
      [
        "ä»Ĭ",
        "å¤©"
      ],
      [
        "æ©ŁåĻ¨",
        "åŃ¸ç¿Ĵ"
      ],
      [
        "èĤ",
        "ī"
      ],
      [
        "éĬ",
        "·"
      ],
      [
        "è¨Ī",
        "åĬĥ"
      ],
      [
        "æĪ",
        "²"
      ],
      [
        "ä¿",
        "®"
      ],
      [
        "èı",
        "¯"
      ],
      [
        "çļĦæĩī",
        "çĶ¨"
      ],
      [
        "èŃ",
        "ī"
      ],
      [
        "æ°",
        "ĳ"
      ],
      [
        "ä½¿çĶ¨",
        "èĢħ"
      ],
      [
        "åľ°",
        "çĲĥ"
      ],
      [
        "å¿",
        "ħ"
      ],
      [
        "æĿ",
        "İ"
      ],
      [
        "åĳĬ",
        "è¨´"
      ],
      [
        "å",
        "§"
      ],
      [
        "é¤",
        "Ĭ"
      ],
      [
        "éĹľéįµ",
        "è©ŀ"
      ],
      [
        "æĿ",
        "Ĳ"
      ],
      [
        "åį",
        "ĩ"
      ],
      [
        "åľ",
        "į"
      ],
      [
        "èĹ",
        "Ŀ"
      ],
      [
        "æŁ",
        "ĵ"
      ],
      [
        "åĮ",
        "Ĺ"
      ],
      [
        "é¦",
        "¬"
      ],
      [
        "æ",
        "Ĵ"
      ],
      [
        "éĽ",
        "¢"
      ],
      [
        "çµ",
        "Ĥ"
      ],
      [
        "å",
        "ļ"
      ],
      [
        "æīĢ",
        "æľī"
      ],
      [
        "ä¸Ģ",
        "æ®µ"
      ],
      [
        "é",
        "Ĳ"
      ],
      [
        "æīĢ",
        "ä»¥"
      ],
      [
        "æİ",
        "§"
      ],
      [
        "éļ",
        "»"
      ],
      [
        "ç",
        "ª"
      ],
      [
        "è",
        "Ķ"
      ],
      [
        "æı",
        "´"
      ],
      [
        "åį",
        "ģ"
      ],
      [
        "èŃĺ",
        "åĪ¥"
      ],
      [
        "æ³¨",
        "æĦı"
      ],
      [
        "éģ©",
        "åĲĪ"
      ],
      [
        "æĻ",
        "ļ"
      ],
      [
        "ä¿",
        "Ĥ"
      ],
      [
        "å",
        "ª"
      ],
      [
        "é»",
        "ĳ"
      ],
      [
        "ä¸¦",
        "ä¸Ķ"
      ],
      [
        "åĸ",
        "Ħ"
      ],
      [
        "å¤",
        "ı"
      ],
      [
        "æĸ°",
        "èģŀ"
      ],
      [
        "ä¸Ģ",
        "èµ·"
      ],
      [
        "åľ",
        "ĸ"
      ],
      [
        "å£",
        "ĵ"
      ],
      [
        "æĪĳåĢĳ",
        "åı¯ä»¥"
      ],
      [
        "éģ",
        "ł"
      ],
      [
        "æŃ£",
        "åľ¨"
      ],
      [
        "éĺ",
        "²"
      ],
      [
        "çļĦå",
        "»"
      ],
      [
        "A",
        "I"
      ],
      [
        "ç´",
        "¢"
      ],
      [
        "ä¸Ģ",
        "ç¨®"
      ],
      [
        "å¤ª",
        "éĻ½"
      ],
      [
        "å¾",
        "ĭ"
      ],
      [
        "é¬",
        "Ĩ"
      ],
      [
        "çĦ¡",
        "æ³ķ"
      ],
      [
        "çĩ",
        "Ł"
      ],
      [
        "æ¯Ķ",
        "å¦Ĥ"
      ],
      [
        "çļĦæ",
        "Ĭ"
      ],
      [
        "è¶",
        "ħ"
      ],
      [
        "æĺ¯",
        "ä»Ģéº¼"
      ],
      [
        "ç¾İ",
        "åľĭ"
      ],
      [
        "æŀ",
        "Ĺ"
      ],
      [
        "åŃ",
        "©"
      ],
      [
        "éĹľ",
        "ä¿Ĥ"
      ],
      [
        "è¦ģ",
        "æ±Ĥ"
      ],
      [
        "çŁ¥",
        "éģĵ"
      ],
      [
        "çļĦæ",
        "Ń"
      ],
      [
        "åĥ",
        "ħ"
      ],
      [
        "å·",
        "§"
      ],
      [
        "è²",
        "ł"
      ],
      [
        "éģİ",
        "ç¨ĭ"
      ],
      [
        "æĦŁ",
        "åĪ°"
      ],
      [
        "çĦ¶",
        "å¾Į"
      ],
      [
        "å",
        "¨"
      ],
      [
        "å°ı",
        "èªª"
      ],
      [
        "åŃ¸",
        "çĶŁ"
      ],
      [
        "å»º",
        "ç«ĭ"
      ],
      [
        "èµ",
        "°"
      ],
      [
        "çĪ",
        "¾"
      ],
      [
        "åŃĺ",
        "åľ¨"
      ],
      [
        "èģ",
        "·"
      ],
      [
        "æ¯ı",
        "åĢĭ"
      ],
      [
        "éĤ",
        "Ĭ"
      ],
      [
        "æ³",
        "Ľ"
      ],
      [
        "èģ",
        "²"
      ],
      [
        "æŁ",
        "Ĳ"
      ],
      [
        "åı",
        "¦"
      ],
      [
        "èĢĥ",
        "æħ®"
      ],
      [
        "ç",
        "Ŀ"
      ],
      [
        "è§£",
        "éĩĭ"
      ],
      [
        "ï¼ļ",
        "âĢľ"
      ],
      [
        "å»",
        "³"
      ],
      [
        "å¸",
        "Į"
      ],
      [
        "çķ",
        "«"
      ],
      [
        "ĳ",
        "æĪ°"
      ],
      [
        "é¡",
        "¯"
      ],
      [
        "è³ª",
        "éĩı"
      ],
      [
        "è¡Į",
        "çĤº"
      ],
      [
        "ç¸½",
        "çµĲ"
      ],
      [
        "å£",
        "«"
      ],
      [
        "å¾",
        "·"
      ],
      [
        "æĪĲ",
        "åĬŁ"
      ],
      [
        "æĭ",
        "ī"
      ],
      [
        "çļĦæ",
        "°"
      ],
      [
        "åĺ",
        "Ĺ"
      ],
      [
        "å¸Ĥ",
        "åł´"
      ],
      [
        "éĻ",
        "į"
      ],
      [
        "çļĦ",
        "æĺ¯"
      ],
      [
        "èĽ",
        "ĭ"
      ],
      [
        "æ",
        "ĩ"
      ],
      [
        "çļĦæ",
        "Ĺ"
      ],
      [
        "æĪ",
        "¿"
      ],
      [
        "åį",
        "Ĺ"
      ],
      [
        "éģĬ",
        "æĪ²"
      ],
      [
        "çŃī",
        "çŃī"
      ],
      [
        "ª",
        "æĸ½"
      ],
      [
        "éĮ¯",
        "èª¤"
      ],
      [
        "éĨ«",
        "çĶŁ"
      ],
      [
        "åĽ",
        "Ľ"
      ],
      [
        "è¼",
        "¯"
      ],
      [
        "æ®µ",
        "èĲ½"
      ],
      [
        "æĪĳ",
        "æĥ³"
      ],
      [
        "å°į",
        "è©±"
      ],
      [
        "ä¸Ģ",
        "ç¯ĩ"
      ],
      [
        "ä¼",
        "¼"
      ],
      [
        "åĳ",
        "¢"
      ],
      [
        "äº",
        "Ķ"
      ],
      [
        "çħ",
        "§"
      ],
      [
        "çļĦ",
        "çĻ¼å±ķ"
      ],
      [
        "ä½ľ",
        "çĤº"
      ],
      [
        "å®Į",
        "æĪĲ"
      ],
      [
        "åĺĹ",
        "è©¦"
      ],
      [
        "æľĢ",
        "å¾Į"
      ],
      [
        "é",
        "³"
      ],
      [
        "å",
        "³"
      ],
      [
        "æĵ",
        "ģ"
      ],
      [
        "éĢĻ",
        "æ®µ"
      ],
      [
        "ä¸ĭ",
        "éĿ¢"
      ],
      [
        "èĩª",
        "åĭķ"
      ],
      [
        "çļĦ",
        "åľ°"
      ],
      [
        "åĪ©",
        "çĶ¨"
      ],
      [
        "æ¿",
        "Ł"
      ],
      [
        "é£²",
        "é£Ł"
      ],
      [
        "ä½ł",
        "çļĦ"
      ],
      [
        "çģ",
        "«"
      ],
      [
        "ç±",
        "³"
      ],
      [
        "è¨",
        "ĵ"
      ],
      [
        "ç¢º",
        "ä¿Ŀ"
      ],
      [
        "çļĦ",
        "è³ĩè¨Ĭ"
      ],
      [
        "æļ",
        "ĸ"
      ],
      [
        "çļĦå",
        "¹"
      ],
      [
        "ç®¡",
        "çĲĨ"
      ],
      [
        "åĦ",
        "ĺ"
      ],
      [
        "åĴ",
        "ĸ"
      ],
      [
        "éģ",
        "¿"
      ],
      [
        "çķ¶",
        "çĦ¶"
      ],
      [
        "æ",
        "Ĩ"
      ],
      [
        "åı¯èĥ½",
        "æľĥ"
      ],
      [
        "é£Ł",
        "çī©"
      ],
      [
        "æ",
        "¹"
      ],
      [
        "äº",
        "ŀ"
      ],
      [
        "å®",
        "³"
      ],
      [
        "çĶ¢",
        "çĶŁ"
      ],
      [
        "å¾Ĺ",
        "åĪ°"
      ],
      [
        "æŃ·",
        "åı²"
      ],
      [
        "çļĦå",
        "Ł"
      ],
      [
        "æĽ´å¥½",
        "åľ°"
      ],
      [
        "çİ",
        "ĭ"
      ],
      [
        "å»£",
        "æ³Ľ"
      ],
      [
        "æ°£",
        "åĢĻ"
      ],
      [
        "æ",
        "¦Ĥ"
      ],
      [
        "ä¼",
        "ģ"
      ],
      [
        "çİ",
        "©"
      ],
      [
        "çį²",
        "å¾Ĺ"
      ],
      [
        "ç¶ĵ",
        "æ¿Ł"
      ],
      [
        "æĥħ",
        "æ³ģ"
      ],
      [
        "å¿",
        "µ"
      ],
      [
        "ãĢĤ",
        "\\"
      ],
      [
        "ä»»",
        "ä½ķ"
      ],
      [
        "å¢ŀ",
        "åĬł"
      ],
      [
        "èŀ",
        "į"
      ],
      [
        "éĤĦ",
        "æľī"
      ],
      [
        "è¤",
        "ĩ"
      ],
      [
        "ç®Ĺ",
        "æ³ķ"
      ],
      [
        "è",
        "İ"
      ],
      [
        "æ¨Ļ",
        "é¡Į"
      ],
      [
        "æı",
        "Ľ"
      ],
      [
        "åķ",
        "¡"
      ],
      [
        "äº",
        "¬"
      ],
      [
        "ä¸į",
        "æĺ¯"
      ],
      [
        "æ½",
        "Ķ"
      ],
      [
        "åĴĸ",
        "åķ¡"
      ],
      [
        "çĽ®",
        "æ¨Ļ"
      ],
      [
        "ä½",
        "³"
      ],
      [
        "å®",
        "¤"
      ],
      [
        "æª",
        "¢"
      ],
      [
        "æķ",
        "ħäºĭ"
      ],
      [
        "èį",
        "ī"
      ],
      [
        "å¯",
        "Ĩ"
      ],
      [
        "éĽ",
        "¨"
      ],
      [
        "äº¤",
        "éĢļ"
      ],
      [
        "è¼¸",
        "åħ¥"
      ],
      [
        "åħ",
        "Ĵ"
      ],
      [
        "çļĦ",
        "åı¥åŃĲ"
      ],
      [
        "æĢ",
        "İ"
      ],
      [
        "å·",
        "´"
      ],
      [
        "éĢĻ",
        "æ¨£"
      ],
      [
        "æĹ",
        "©"
      ],
      [
        "è¡¨",
        "ç¤º"
      ],
      [
        "çĶ¨",
        "æĸ¼"
      ],
      [
        "éĢ",
        "±"
      ],
      [
        "éĻ",
        "Ĳ"
      ],
      [
        "çľ",
        "¾"
      ],
      [
        "é»",
        "ĥ"
      ],
      [
        "ç¾",
        "¤"
      ],
      [
        "ä»ĸ",
        "çļĦ"
      ],
      [
        "èĩ",
        "º"
      ],
      [
        "åı¯ä»¥",
        "å¹«åĬ©"
      ],
      [
        "é£",
        "Ľ"
      ],
      [
        "çĶŁæĪĲ",
        "ä¸ĢåĢĭ"
      ],
      [
        "äº",
        "Ĵ"
      ],
      [
        "å¸Į",
        "æľĽ"
      ],
      [
        "é¦ĸ",
        "åħĪ"
      ],
      [
        "åľ",
        "ĺ"
      ],
      [
        "è¡",
        "£"
      ],
      [
        "éħ",
        "Ĵ"
      ],
      [
        "çļĦå",
        "¯"
      ],
      [
        "é¤Ĳ",
        "å»³"
      ],
      [
        "éĸ",
        "±"
      ],
      [
        "éĥ½",
        "æĺ¯"
      ],
      [
        "çļĦ",
        "ä¸»è¦ģ"
      ],
      [
        "ç³ĸ",
        "æŀľ"
      ],
      [
        "çļĦ",
        "æĸĩç«ł"
      ],
      [
        "çµĲ",
        "æŀľ"
      ],
      [
        "æľī",
        "æķĪ"
      ],
      [
        "ä½ł",
        "åı¯ä»¥"
      ],
      [
        "çļĦå»",
        "º"
      ],
      [
        "çī",
        "Ľ"
      ],
      [
        "åĮħ",
        "åĲ«"
      ],
      [
        "æĿ",
        "±"
      ],
      [
        "ç©",
        "¿"
      ],
      [
        "å¾",
        "Ģ"
      ],
      [
        "æķĻ",
        "èĤ²"
      ],
      [
        "æĸ°",
        "çļĦ"
      ],
      [
        "æī¾",
        "åĪ°"
      ],
      [
        "éĩ",
        "Į"
      ],
      [
        "æĪĳ",
        "çļĦ"
      ],
      [
        "çŀŃ",
        "è§£"
      ],
      [
        "åº",
        "Ń"
      ],
      [
        "Ļ",
        "æŁĵ"
      ],
      [
        "çļĦ",
        "éĩįè¦ģ"
      ],
      [
        "å±",
        "¬"
      ],
      [
        "å¾",
        "µ"
      ],
      [
        "éľĢ",
        "æ±Ĥ"
      ],
      [
        "æĮģ",
        "çºĮ"
      ],
      [
        "åĳĬè¨´",
        "æĪĳ"
      ],
      [
        "éĥ¨",
        "åĪĨ"
      ],
      [
        "æľī",
        "éĹľ"
      ],
      [
        "ä»",
        "¤"
      ],
      [
        "æİ¡",
        "åıĸ"
      ],
      [
        "è§Ģ",
        "é»ŀ"
      ],
      [
        "ä½¿",
        "åħ¶"
      ],
      [
        "åº",
        "Ĺ"
      ],
      [
        "éģ¿",
        "åħį"
      ],
      [
        "é«Ķ",
        "é©Ĺ"
      ],
      [
        "ä¼ģ",
        "æ¥Ń"
      ],
      [
        "æİ",
        "ªæĸ½"
      ],
      [
        "èµ·",
        "ä¾Ĩ"
      ],
      [
        "äºĨ",
        "ä¸ĢåĢĭ"
      ],
      [
        "çī",
        "Į"
      ],
      [
        "è¡¨",
        "çı¾"
      ],
      [
        "åĿ",
        "ĩ"
      ],
      [
        "ä¹Ł",
        "æĺ¯"
      ],
      [
        "åĬ",
        "ĩ"
      ],
      [
        "å¾",
        "®"
      ],
      [
        "æģ",
        "¯"
      ],
      [
        "çļĦå",
        "¥"
      ],
      [
        "ç¶",
        "ł"
      ],
      [
        "èĲ",
        "¬"
      ],
      [
        "æĶ¯",
        "æı´"
      ],
      [
        "æ¼Ķ",
        "ç®Ĺæ³ķ"
      ],
      [
        "èĥ½",
        "æºĲ"
      ],
      [
        "ç°¡",
        "åĸ®"
      ],
      [
        "çĪ",
        "Ń"
      ],
      [
        "è£½",
        "ä½ľ"
      ],
      [
        "éº",
        "µ"
      ],
      [
        "æ¨",
        "¹"
      ],
      [
        "éŃ",
        "ļ"
      ],
      [
        "çĻ¼",
        "çĶŁ"
      ],
      [
        "çı¾",
        "ä»£"
      ],
      [
        "ä½ľ",
        "çĶ¨"
      ],
      [
        "éĢ",
        "£"
      ],
      [
        "çĶ±",
        "æĸ¼"
      ],
      [
        "ç«",
        "Ļ"
      ],
      [
        "éĸ±",
        "è®Ģ"
      ],
      [
        "ä¸į",
        "èĥ½"
      ],
      [
        "çĽ",
        "Ĭ"
      ],
      [
        "æ¿",
        "Ģ"
      ],
      [
        "é",
        "¼"
      ],
      [
        "èĩªçĦ¶",
        "èªŀè¨Ģ"
      ],
      [
        "ä¹Ł",
        "åı¯ä»¥"
      ],
      [
        "0",
        "0"
      ],
      [
        "æĵģ",
        "æľī"
      ],
      [
        "ä¸ī",
        "åĢĭ"
      ],
      [
        "èī",
        "¯"
      ],
      [
        "å°ı",
        "ç´ħ"
      ],
      [
        "æ¤",
        "į"
      ],
      [
        "éĹľ",
        "æ³¨"
      ],
      [
        "æĹħ",
        "éģĬ"
      ],
      [
        "åĪ",
        "ĩ"
      ],
      [
        "æ²",
        "¹"
      ],
      [
        "¾",
        "çĹħ"
      ],
      [
        "æķ",
        "£"
      ],
      [
        "ç¹",
        "Ķ"
      ],
      [
        "å¤",
        "ľ"
      ],
      [
        "å¾",
        "ħ"
      ],
      [
        "åĪ",
        "¤"
      ],
      [
        "éĤĦ",
        "æĺ¯"
      ],
      [
        "èĪ",
        "ī"
      ],
      [
        "åŁº",
        "æĸ¼"
      ],
      [
        "å®¢",
        "æĪ¶"
      ],
      [
        "âĢĿ",
        "ï¼Į"
      ],
      [
        "è±",
        "Ĳ"
      ],
      [
        "å±",
        "ħ"
      ],
      [
        "è¨",
        "º"
      ],
      [
        "è³ĩ",
        "æºĲ"
      ],
      [
        "åĬł",
        "åħ¥"
      ],
      [
        "æĮ",
        "ĳæĪ°"
      ],
      [
        "å",
        "¦"
      ],
      [
        "é¡",
        "ı"
      ],
      [
        "çļĦæ",
        "İ"
      ],
      [
        "åĵª",
        "äºĽ"
      ],
      [
        "é¤",
        "¨"
      ],
      [
        "æ±",
        "ĻæŁĵ"
      ],
      [
        "ç¤¾",
        "äº¤"
      ],
      [
        "å¦Ĥæŀľ",
        "ä½ł"
      ],
      [
        "åı",
        "Ī"
      ],
      [
        "çļĦæ",
        "¨"
      ],
      [
        "éģ",
        "ĩ"
      ],
      [
        "ç¢º",
        "å®ļ"
      ],
      [
        "éĿ",
        "ľ"
      ],
      [
        "åĬ",
        "ª"
      ],
      [
        "èĹ",
        "¥"
      ],
      [
        "ï¼Ł",
        "<|"
      ],
      [
        "åº",
        "ľ"
      ],
      [
        "éĽ",
        "ŀ"
      ],
      [
        "è»",
        "Ł"
      ],
      [
        "è¨ĵ",
        "ç·´"
      ],
      [
        "çĤº",
        "äºĨ"
      ],
      [
        "åĸ®",
        "è©ŀ"
      ],
      [
        "é",
        "®"
      ],
      [
        "ä»¥ä¸ĭ",
        "åı¥åŃĲ"
      ],
      [
        "èħ",
        "¦"
      ],
      [
        "åĪ",
        "»"
      ],
      [
        "å®¶",
        "åºŃ"
      ],
      [
        "æĺ",
        "¥"
      ],
      [
        "å¾ŀ",
        "èĢĮ"
      ],
      [
        "éĽ",
        "ĸ"
      ],
      [
        "è§Ĵ",
        "èī²"
      ],
      [
        "åĬª",
        "åĬĽ"
      ],
      [
        "å¹¾",
        "åĢĭ"
      ],
      [
        "æİ§",
        "åĪ¶"
      ],
      [
        "æŃ£",
        "ç¢º"
      ],
      [
        "ç¿",
        "»"
      ],
      [
        "èĪ",
        "Ĵ"
      ],
      [
        "éĢĻ",
        "æĺ¯"
      ],
      [
        "æľī",
        "è¶£"
      ],
      [
        "æĢ§",
        "åĴĮ"
      ],
      [
        "èĹĿ",
        "è¡ĵ"
      ],
      [
        "è¿",
        "½"
      ],
      [
        "åĬŁ",
        "èĥ½"
      ],
      [
        "é³",
        "¥"
      ],
      [
        "æ²»",
        "çĻĤ"
      ],
      [
        "çļĦæĬ",
        "Ģ"
      ],
      [
        "æł¹æĵļ",
        "çµ¦å®ļ"
      ],
      [
        "åıĹ",
        "åĪ°"
      ],
      [
        "æĸ¹",
        "æ¡Ī"
      ],
      [
        "ä¸įåĲĮ",
        "çļĦ"
      ],
      [
        "éĽ",
        "ľ"
      ],
      [
        "æĬ",
        "ķ"
      ],
      [
        "å¡",
        "Ĭ"
      ],
      [
        "éłĲ",
        "æ¸¬"
      ],
      [
        "åĶ",
        "®"
      ],
      [
        "å¯",
        "¶"
      ],
      [
        "æ¯Ķ",
        "è¼ĥ"
      ],
      [
        "å±",
        "¤"
      ],
      [
        "æĤ¨",
        "åı¯ä»¥"
      ],
      [
        "åħ",
        "¸"
      ],
      [
        "çĸ",
        "¾çĹħ"
      ],
      [
        "æĹħ",
        "è¡Į"
      ],
      [
        "è©",
        "¢"
      ],
      [
        "¼",
        "º"
      ],
      [
        "è©",
        "³"
      ],
      [
        "æ²",
        "Ļ"
      ],
      [
        "å¤§",
        "çļĦ"
      ],
      [
        "çļĦæ",
        "Ķ"
      ],
      [
        "å¥",
        "ĩ"
      ],
      [
        "äººå·¥æĻºæħ§",
        "æĬĢè¡ĵ"
      ],
      [
        "æľĢ",
        "çµĤ"
      ],
      [
        "æķĪ",
        "çİĩ"
      ],
      [
        "æİ¢",
        "ç´¢"
      ],
      [
        "äºĭ",
        "ä»¶"
      ],
      [
        "çļĦå",
        "¿"
      ],
      [
        "è³¼",
        "è²·"
      ],
      [
        "ä¸į",
        "åĥħ"
      ],
      [
        "çŃ",
        "Ĩ"
      ],
      [
        "è",
        "¸"
      ],
      [
        "æĤ",
        "£"
      ],
      [
        "ä¾Ĩ",
        "è¶Ĭ"
      ],
      [
        "ç§",
        "ĭ"
      ],
      [
        "æľĢ",
        "ä½³"
      ],
      [
        "ä»ĸåĢĳ",
        "çļĦ"
      ],
      [
        "éĽĸ",
        "çĦ¶"
      ],
      [
        "æĤ¨",
        "çļĦ"
      ],
      [
        "éĽ",
        "²"
      ],
      [
        "è¶Ĭ",
        "ä¾Ĩè¶Ĭ"
      ],
      [
        "æºĸ",
        "ç¢º"
      ],
      [
        "åļ",
        "´"
      ],
      [
        "ç",
        "ĵ"
      ],
      [
        "éļ¨",
        "èĳĹ"
      ],
      [
        "ç¾İ",
        "éºĹ"
      ],
      [
        "çŁ",
        "³"
      ],
      [
        "éĻ",
        "¢"
      ],
      [
        "é®",
        "®"
      ],
      [
        "è",
        "Ĵ"
      ],
      [
        "äºº",
        "çļĦ"
      ],
      [
        "éĽ»",
        "åŃĲ"
      ],
      [
        "æ°£åĢĻ",
        "è®ĬåĮĸ"
      ],
      [
        "é¢¨",
        "éļª"
      ],
      [
        "çĶŁ",
        "çī©"
      ],
      [
        "èĩ",
        "¨"
      ],
      [
        "çĶŁ",
        "åĳ½"
      ],
      [
        "æ",
        "į"
      ],
      [
        "æĮ",
        "ī"
      ],
      [
        "æĪĳåĢĳ",
        "éľĢè¦ģ"
      ],
      [
        "ç¦",
        "ı"
      ],
      [
        "ä¾Ĩ",
        "èªª"
      ],
      [
        "å¤",
        "¢"
      ],
      [
        "åĩº",
        "çı¾"
      ],
      [
        "éĿ",
        "Ī"
      ],
      [
        "æ¯Ķ",
        "è³½"
      ],
      [
        "é¡ı",
        "èī²"
      ],
      [
        "æµ",
        "ª"
      ],
      [
        "è±Ĳ",
        "å¯Į"
      ],
      [
        "æīį",
        "èĥ½"
      ],
      [
        "åŀĭ",
        "åĪ¥"
      ],
      [
        "è",
        "ĵ"
      ],
      [
        "è©ķ",
        "è«ĸ"
      ],
      [
        "æŃ",
        "¸"
      ],
      [
        "èĳ",
        "ī"
      ],
      [
        "å°±",
        "æĺ¯"
      ],
      [
        "åº",
        "ı"
      ],
      [
        "æĽ",
        "²"
      ],
      [
        "æ´",
        "ĭ"
      ],
      [
        "çķ",
        "¥"
      ],
      [
        "æĢİ",
        "éº¼"
      ],
      [
        "æ±",
        "½"
      ],
      [
        "çĥ",
        "¤"
      ],
      [
        "ç",
        "¼º"
      ],
      [
        "ä¸Ģ",
        "ä½į"
      ],
      [
        "è·",
        "ĳ"
      ],
      [
        "ç·¨",
        "è¼¯"
      ],
      [
        "ä¸Ģ",
        "ä»½"
      ],
      [
        "èĹ",
        "į"
      ],
      [
        "éĩįè¦ģ",
        "çļĦ"
      ],
      [
        "è©³",
        "ç´°"
      ],
      [
        "ä»¥ä¸ĭ",
        "æĸĩåŃĹ"
      ],
      [
        "åģ",
        "ĩ"
      ],
      [
        "æĻ",
        "®"
      ],
      [
        "èĩªçĦ¶èªŀè¨Ģ",
        "èĻķçĲĨ"
      ],
      [
        "æĶ¿",
        "åºľ"
      ],
      [
        "åª",
        "Ĵ"
      ],
      [
        "çĶŁ",
        "æħĭ"
      ],
      [
        "è¦",
        "ª"
      ],
      [
        "æĶ¹",
        "è®Ĭ"
      ],
      [
        "æł",
        "¡"
      ],
      [
        "æ°´",
        "æŀľ"
      ],
      [
        "æĵ",
        "¬"
      ],
      [
        "ç¯",
        "Ħ"
      ],
      [
        "çļĦå»º",
        "èŃ°"
      ],
      [
        "çµĦ",
        "ç¹Ķ"
      ],
      [
        "è¾",
        "¦"
      ],
      [
        "è¡¨",
        "æĺİ"
      ],
      [
        "èªŀ",
        "æ³ķ"
      ],
      [
        "éĤĦ",
        "åı¯ä»¥"
      ],
      [
        "å¥",
        "¶"
      ],
      [
        "çļĦ",
        "éĽ»å½±"
      ],
      [
        "å¤ļ",
        "å°ĳ"
      ],
      [
        "ä½ľ",
        "èĢħ"
      ],
      [
        "è¨º",
        "æĸ·"
      ],
      [
        "åħ¬",
        "åľĴ"
      ],
      [
        "æĸĩ",
        "æ¡Ī"
      ],
      [
        "ç¾İ",
        "é£Ł"
      ],
      [
        "ç´",
        "ļ"
      ],
      [
        "ç¢",
        "¼"
      ],
      [
        "çĻ",
        "¾"
      ],
      [
        "åł",
        "ħ"
      ],
      [
        "å¾",
        "©"
      ],
      [
        "è£Ŀ",
        "ç½®"
      ],
      [
        "çĤº",
        "ä»Ģéº¼"
      ],
      [
        "çµĲ",
        "æ§ĭ"
      ],
      [
        "è¡Į",
        "åĭķ"
      ],
      [
        "çĽ",
        "£"
      ],
      [
        "ç",
        "Ĭ"
      ],
      [
        "çĶŁ",
        "çĶ¢"
      ],
      [
        "éĢĻæ®µ",
        "æĸĩåŃĹ"
      ],
      [
        "æĹ",
        "ı"
      ],
      [
        "åĤ³",
        "çµ±"
      ],
      [
        "è«ĭ",
        "åķı"
      ],
      [
        "é¡Į",
        "çĽ®"
      ],
      [
        "é¡",
        "Ĩ"
      ],
      [
        "åĲį",
        "ç¨±"
      ],
      [
        "å½",
        "©"
      ],
      [
        "ä½",
        "ı"
      ],
      [
        "çķ¶",
        "åľ°"
      ],
      [
        "é¢¨",
        "æł¼"
      ],
      [
        "ä¿",
        "ĥ"
      ],
      [
        "çļĦæĥħ",
        "æĦŁ"
      ],
      [
        "çķ",
        "°"
      ],
      [
        "é",
        "ı"
      ],
      [
        "ç¶ĵ",
        "é©Ĺ"
      ],
      [
        "åį",
        "¡"
      ],
      [
        "çļĦæĦ",
        "ı"
      ],
      [
        "è®Ĭ",
        "å¾Ĺ"
      ],
      [
        "åľ¨",
        "éĢĻåĢĭ"
      ],
      [
        "çķ",
        "Ļ"
      ],
      [
        "çī¹",
        "å¾µ"
      ],
      [
        "å°ĭ",
        "æī¾"
      ],
      [
        "çª",
        "ģ"
      ],
      [
        "ç¾",
        "ħ"
      ],
      [
        "ç·",
        "©"
      ],
      [
        "åīµ",
        "éĢł"
      ],
      [
        "è¿",
        "İ"
      ],
      [
        "èĥ",
        "Į"
      ],
      [
        "åªĴ",
        "é«Ķ"
      ],
      [
        "çĽ",
        "¡"
      ],
      [
        "åħħ",
        "æ»¿"
      ],
      [
        "è¡Į",
        "æ¥Ń"
      ],
      [
        "çļĦ",
        "æĸ¹æ³ķ"
      ],
      [
        "è²",
        "¬"
      ],
      [
        "çļĦå",
        "ģ"
      ],
      [
        "å£ĵ",
        "åĬĽ"
      ],
      [
        "æ³",
        "¢"
      ],
      [
        "çĸ",
        "«"
      ],
      [
        "äº",
        "®"
      ],
      [
        "åĳ",
        "¼"
      ],
      [
        "é£Ł",
        "åĵģ"
      ],
      [
        "éĸĭ",
        "çĻ¼"
      ],
      [
        "è¨İ",
        "è«ĸ"
      ],
      [
        "æºĸ",
        "åĤĻ"
      ],
      [
        "äº«",
        "åıĹ"
      ],
      [
        "å¤§",
        "éĩı"
      ],
      [
        "èī²",
        "çļĦ"
      ],
      [
        "å¦Ĥæŀľ",
        "æĤ¨"
      ],
      [
        "è¡",
        "¡"
      ],
      [
        "åıĥ",
        "åĬł"
      ],
      [
        "å°",
        "¼"
      ],
      [
        "éĿ",
        "Ĵ"
      ],
      [
        "æľ",
        "¨"
      ],
      [
        "ç¬",
        "¦"
      ],
      [
        "è²ł",
        "éĿ¢"
      ],
      [
        "çļ",
        "®"
      ],
      [
        "æ´",
        "²"
      ],
      [
        "åĩº",
        "äºĨ"
      ],
      [
        "èĳĹ",
        "åĲį"
      ],
      [
        "æ¯ı",
        "åĢĭäºº"
      ],
      [
        "èŃ",
        "¯"
      ],
      [
        "ç·",
        "Ĭ"
      ],
      [
        "åĲ",
        "§"
      ],
      [
        "ä¸Ģ",
        "å®ļ"
      ],
      [
        "éł",
        "Ī"
      ],
      [
        "âĢĿ",
        "ãĢĤ"
      ],
      [
        "ĥ",
        "åľ"
      ],
      [
        "éĥ¨",
        "éĽ»å½±"
      ],
      [
        "æ¯",
        "į"
      ],
      [
        "çļĦå",
        "ĸ"
      ],
      [
        "ĥåľ",
        "¾"
      ],
      [
        "ä¸Ń",
        "å¿ĥ"
      ],
      [
        "æ¯ı",
        "å¤©"
      ],
      [
        "å°Ī",
        "æ¥Ń"
      ],
      [
        "æ±½",
        "è»Ĭ"
      ],
      [
        "èĪĪ",
        "è¶£"
      ],
      [
        "å·¥",
        "åħ·"
      ],
      [
        "åĽ",
        "°"
      ],
      [
        "Ċ",
        "Ċ"
      ],
      [
        "éĲ",
        "ĺ"
      ],
      [
        "åĨ",
        "°"
      ],
      [
        "ãĢĤ",
        "\""
      ],
      [
        "çģ",
        "ĺ"
      ],
      [
        "çļĦæ",
        "ī"
      ],
      [
        "ä¸Ģ",
        "æŃ¥"
      ],
      [
        "è",
        "ľ"
      ],
      [
        "ä¹ĭéĸĵ",
        "çļĦ"
      ],
      [
        "çļĦå",
        "į"
      ],
      [
        "èĶ",
        "¬"
      ],
      [
        "ä½ľ",
        "åĵģ"
      ],
      [
        "çļĦæ",
        "©"
      ],
      [
        "æ¬",
        "Ĭ"
      ],
      [
        "æĿ",
        "¯"
      ],
      [
        "ä»",
        "į"
      ],
      [
        "æĶ¹",
        "åĸĦ"
      ],
      [
        "éĥ",
        "µ"
      ],
      [
        "çŁ¥",
        "èŃĺ"
      ],
      [
        "çļĦå",
        "ĭ"
      ],
      [
        "éĢĻåĢĭ",
        "åķıé¡Į"
      ],
      [
        "æīĭ",
        "æ©Ł"
      ],
      [
        "æĪĳ",
        "æľĥ"
      ],
      [
        "ç¯",
        "ī"
      ],
      [
        "åľ",
        "Ł"
      ],
      [
        "è¬Ľ",
        "è¿°"
      ],
      [
        "å°Ī",
        "æ¡Ī"
      ],
      [
        "é",
        "¾"
      ],
      [
        "éĢĻ",
        "åı¥è©±"
      ],
      [
        "æĽ",
        "¿"
      ],
      [
        "çļĦæķ",
        "ħäºĭ"
      ],
      [
        "èĪĴ",
        "éģ©"
      ],
      [
        "ä¸Ĭ",
        "çļĦ"
      ],
      [
        "éį",
        "Ĭ"
      ],
      [
        "åĮĹ",
        "äº¬"
      ],
      [
        "å¹«",
        "æĪĳ"
      ],
      [
        "è»",
        "į"
      ],
      [
        "éĩ",
        "İ"
      ],
      [
        "çľ",
        "ł"
      ],
      [
        "ä¸Ģ",
        "çĽ´"
      ],
      [
        "è¶",
        "¨"
      ],
      [
        "æĶ¾",
        "é¬Ĩ"
      ],
      [
        "åĽł",
        "ç´ł"
      ],
      [
        "éĺ",
        "¿"
      ],
      [
        "æ¼",
        "«"
      ],
      [
        "æ·±",
        "åº¦"
      ],
      [
        "åŁ",
        "·"
      ],
      [
        "èħ",
        "³"
      ],
      [
        "éĩį",
        "æĸ°"
      ],
      [
        "è¦º",
        "å¾Ĺ"
      ],
      [
        "åŃ©",
        "åŃĲ"
      ],
      [
        "æľī",
        "ä»Ģéº¼"
      ],
      [
        "åº",
        "§"
      ],
      [
        "éĢł",
        "æĪĲ"
      ],
      [
        "æħ",
        "¢"
      ],
      [
        "éĩĳ",
        "èŀį"
      ],
      [
        "éĢ",
        "Ĳ"
      ],
      [
        "å·",
        "ŀ"
      ],
      [
        "çļĦæĻĤ",
        "éĸĵ"
      ],
      [
        "æ¼",
        "¸"
      ],
      [
        "åĪ¤",
        "æĸ·"
      ],
      [
        "1",
        "9"
      ],
      [
        "çł",
        "´"
      ],
      [
        "ä¼",
        "ĳ"
      ],
      [
        "ä»¥ä¸ĭ",
        "æĺ¯"
      ],
      [
        "åĤ",
        "·"
      ],
      [
        "äºĭ",
        "æĥħ"
      ],
      [
        "åĲ¸",
        "å¼ķ"
      ],
      [
        "èģ",
        "Ĭ"
      ],
      [
        "èĶ¬",
        "èıľ"
      ],
      [
        "éĢ",
        "ģ"
      ],
      [
        "è",
        "¹"
      ],
      [
        "åŀ",
        "ĥåľ¾"
      ],
      [
        "å½±",
        "åĥı"
      ],
      [
        "æ¤į",
        "çī©"
      ],
      [
        "éļ",
        "±"
      ],
      [
        "èĢĮ",
        "ä¸Ķ"
      ],
      [
        "æķ¸",
        "åŃĹ"
      ],
      [
        "çĿ",
        "¡"
      ],
      [
        "çĹ",
        "ĩ"
      ],
      [
        "ä¸ŃæıĲåıĸ",
        "åĩº"
      ],
      [
        "æĵ",
        "Ĭ"
      ],
      [
        "éį",
        "Ľ"
      ],
      [
        "èŃ",
        "¦"
      ],
      [
        "çļĦç",
        "§"
      ],
      [
        "é§",
        "Ľ"
      ],
      [
        "å¹´",
        "è¼ķ"
      ],
      [
        "çļĦå",
        "ī"
      ],
      [
        "å·",
        "®"
      ],
      [
        "å¿ħ",
        "éłĪ"
      ],
      [
        "åı¦",
        "å¤ĸ"
      ],
      [
        "ç´",
        "Ģ"
      ],
      [
        "åı¯",
        "æĮģçºĮ"
      ],
      [
        "ç¿»",
        "èŃ¯"
      ],
      [
        "æŃ",
        "¢"
      ],
      [
        "æĪĳ",
        "åı¯ä»¥"
      ],
      [
        "ç·",
        "Ĵ"
      ],
      [
        "çļĦå",
        "Ľ"
      ],
      [
        "ä¸Ģ",
        "æ¬¡"
      ],
      [
        "åī",
        "©"
      ],
      [
        "çľĭ",
        "åĪ°"
      ],
      [
        "éĬ·",
        "åĶ®"
      ],
      [
        "è²",
        "¡"
      ],
      [
        "å°",
        "Ĭ"
      ],
      [
        "æİ¡",
        "çĶ¨"
      ],
      [
        "è¶¨",
        "åĭ¢"
      ],
      [
        "æĸĩç«ł",
        "ä¸Ń"
      ],
      [
        "æ²",
        "³"
      ],
      [
        "é©",
        "ļ"
      ],
      [
        "åľĺ",
        "éļĬ"
      ],
      [
        "åĬ©",
        "æĸ¼"
      ],
      [
        "çļĦç",
        "Ł"
      ],
      [
        "éĮ",
        "Ħ"
      ],
      [
        "ä»¥",
        "ä¸Ĭ"
      ],
      [
        "åĥ¹",
        "åĢ¼"
      ],
      [
        "ä¸į",
        "æľĥ"
      ],
      [
        "çľ",
        "¼"
      ],
      [
        "å·",
        "¨"
      ],
      [
        "åĭ",
        "Ŀ"
      ],
      [
        "åķĨ",
        "åĵģ"
      ],
      [
        "éĮ",
        "¢"
      ],
      [
        "åľ°",
        "åįĢ"
      ],
      [
        "è¡",
        "Ľ"
      ],
      [
        "é§",
        "ķ"
      ],
      [
        "æ°",
        "§"
      ],
      [
        "åĳ",
        "¨"
      ],
      [
        "å¾Ī",
        "å¥½"
      ],
      [
        "åį",
        "Ķ"
      ],
      [
        "æĺ",
        "¨"
      ],
      [
        "æ±º",
        "å®ļ"
      ],
      [
        "å°ĩ",
        "åħ¶"
      ],
      [
        "æĿĲ",
        "æĸĻ"
      ],
      [
        "çī¹",
        "åĪ¥"
      ],
      [
        "åĭ",
        "µ"
      ],
      [
        "çī¹",
        "é»ŀ"
      ],
      [
        "ç°¡",
        "æ½Ķ"
      ],
      [
        "åĪ¶",
        "å®ļ"
      ],
      [
        "éįĽ",
        "éįĬ"
      ],
      [
        "è¾",
        "²"
      ],
      [
        "å¸",
        "ĥ"
      ],
      [
        "åĪ",
        "Ŀ"
      ],
      [
        "é",
        "¹"
      ],
      [
        "æĶ",
        "Ŀ"
      ],
      [
        "é",
        "½"
      ],
      [
        "æķ¸",
        "åŃ¸"
      ],
      [
        "å±¬",
        "æĸ¼"
      ],
      [
        "ç¨ĭå¼ı",
        "è¨Ńè¨Ī"
      ],
      [
        "èĩª",
        "çĶ±"
      ],
      [
        "åīµ",
        "æĸ°"
      ],
      [
        "æħ",
        "£"
      ],
      [
        "Ġ",
        "\""
      ],
      [
        "çļĦç",
        "ł"
      ],
      [
        "ä¸Ģ",
        "éļ»"
      ],
      [
        "çĤº",
        "æĤ¨"
      ],
      [
        "å¨",
        "ģ"
      ],
      [
        "ä¹",
        "¾"
      ],
      [
        "çļĦæ",
        "º"
      ],
      [
        "èģ·",
        "æ¥Ń"
      ],
      [
        "æ¶",
        "ī"
      ],
      [
        "ä»£",
        "è¡¨"
      ],
      [
        "éĥ½",
        "æľī"
      ],
      [
        "ç¶ĵ",
        "æŃ·"
      ],
      [
        "çĦ¶",
        "èĢĮ"
      ],
      [
        "ç§",
        "ĺ"
      ],
      [
        "å",
        "©"
      ],
      [
        "æĥ³",
        "è¦ģ"
      ],
      [
        "åĢ",
        "«"
      ],
      [
        "åĬł",
        "å¼·"
      ],
      [
        "é",
        "¨"
      ],
      [
        "è©ķ",
        "åĥ¹"
      ],
      [
        "ç«",
        "¯"
      ],
      [
        "å¿ĥ",
        "çĲĨ"
      ],
      [
        "å°",
        "ļ"
      ],
      [
        "è¡",
        "Ģ"
      ],
      [
        "éĻ½",
        "åħī"
      ],
      [
        "æĺ¯",
        "åľ¨"
      ],
      [
        "çĽ®",
        "åīį"
      ],
      [
        "ä¿ĥ",
        "éĢ²"
      ],
      [
        "è¤ĩ",
        "éĽľ"
      ],
      [
        "çĸ",
        "ĳ"
      ],
      [
        "åı¯ä»¥",
        "éĢıéģİ"
      ],
      [
        "å®",
        "£"
      ],
      [
        "éĢĻ",
        "è£¡"
      ],
      [
        "æĲ",
        "Ń"
      ],
      [
        "éĩ",
        "Ŀ"
      ],
      [
        "ç§",
        "ģ"
      ],
      [
        "åĦĺ",
        "ç®¡"
      ],
      [
        "ä¾",
        "Ŀ"
      ],
      [
        "éĻį",
        "ä½İ"
      ],
      [
        "èĵ",
        "ĭ"
      ],
      [
        "åĲĪ",
        "ä½ľ"
      ],
      [
        "çī©",
        "è³ª"
      ],
      [
        "çļĦæ©",
        "Ł"
      ],
      [
        "åł±",
        "éģĵ"
      ],
      [
        "ç¹",
        "¼"
      ],
      [
        "è®ĵ",
        "æĪĳ"
      ],
      [
        "éĥµ",
        "ä»¶"
      ],
      [
        "çļĦ",
        "çĶŁæ´»"
      ],
      [
        "æľī",
        "åĬ©æĸ¼"
      ],
      [
        "æŃ",
        "²"
      ],
      [
        "åĵ",
        "Ī"
      ],
      [
        "åĬĽ",
        "åĴĮ"
      ],
      [
        "ä¸į",
        "è¦ģ"
      ],
      [
        "çļĦç",
        "Ĵ°"
      ],
      [
        "æĺ¯",
        "æĮĩ"
      ],
      [
        "ç²",
        "ī"
      ],
      [
        "éĽ",
        "Ļ"
      ],
      [
        "çļĦæĦ",
        "Ł"
      ],
      [
        "åį",
        "»"
      ],
      [
        "æķ¸",
        "éĩı"
      ],
      [
        "äººå·¥æĻºæħ§",
        "åľ¨"
      ],
      [
        "çµ",
        "¡"
      ],
      [
        "ç·¨",
        "å¯«"
      ],
      [
        "çļĦ",
        "ä¸»é¡Į"
      ],
      [
        "éł",
        "Ĩ"
      ],
      [
        "ç¤",
        "İ"
      ],
      [
        "å°",
        "Ħ"
      ],
      [
        "æķ´",
        "åĢĭ"
      ],
      [
        "ŀ",
        "ĭ"
      ],
      [
        "ä½ł",
        "èĥ½"
      ],
      [
        "å¼·",
        "èª¿"
      ],
      [
        "çī",
        "Ī"
      ],
      [
        "åħ±",
        "åĲĮ"
      ],
      [
        "ç¦",
        "®"
      ],
      [
        "æ",
        "¾"
      ],
      [
        "è",
        "ķ"
      ],
      [
        "èĻ",
        "Ľ"
      ],
      [
        "åī",
        "Ľ"
      ],
      [
        "åĨ",
        "·"
      ],
      [
        "éĢĻ",
        "éĥ¨éĽ»å½±"
      ],
      [
        "ä¸Ĭ",
        "æľĢ"
      ],
      [
        "è¬Ŀ",
        "è¬Ŀ"
      ],
      [
        "çļĦæ",
        "Į"
      ],
      [
        "çĦ",
        "¦"
      ],
      [
        "éĲ",
        "µ"
      ],
      [
        "åº",
        "ķ"
      ],
      [
        "æĹ",
        "¨"
      ],
      [
        "éĩį",
        "å¯«"
      ],
      [
        "åı",
        "«"
      ],
      [
        "æľī",
        "å¾Īå¤ļ"
      ],
      [
        "éĨ«",
        "åŃ¸"
      ],
      [
        "æľī",
        "äºĽ"
      ],
      [
        "åĵģ",
        "çīĮ"
      ],
      [
        "ä¸Ģ",
        "åĲį"
      ],
      [
        "èģ¯",
        "çµ¡"
      ],
      [
        "ä½¿",
        "å¾Ĺ"
      ],
      [
        "å®ĥ",
        "çļĦ"
      ],
      [
        "èĪ",
        "ŀ"
      ],
      [
        "çļĦæ",
        "ı"
      ],
      [
        "èªª",
        "æĺİ"
      ],
      [
        "éģİç¨ĭ",
        "ä¸Ń"
      ],
      [
        "ç",
        "£"
      ],
      [
        "ä¸į",
        "éĮ¯"
      ],
      [
        "çļĦæ",
        "¯"
      ],
      [
        "éĢĻ",
        "æĺ¯ä¸Ģ"
      ],
      [
        "äº¤",
        "æµģ"
      ],
      [
        "æĽ´å¤ļ",
        "çļĦ"
      ],
      [
        "»",
        "åĭķ"
      ],
      [
        "æĬĢ",
        "èĥ½"
      ],
      [
        "é¡",
        "ĺ"
      ],
      [
        "âĢ",
        "Ķ"
      ],
      [
        "æİ¢",
        "è¨İ"
      ],
      [
        "æĵ",
        "Ķ"
      ],
      [
        "èĮ",
        "¶"
      ],
      [
        "æĤ£",
        "èĢħ"
      ],
      [
        "ç¥",
        "¨"
      ],
      [
        "é¤",
        "ĺ"
      ],
      [
        "å®",
        "ĩ"
      ],
      [
        "ä¹",
        "³"
      ],
      [
        "æľ¬",
        "æĸĩ"
      ],
      [
        "ç",
        "Į"
      ],
      [
        "ç«",
        "¶"
      ],
      [
        "çį¨",
        "çī¹"
      ],
      [
        "å¥",
        "Ĺ"
      ],
      [
        "è®ĵ",
        "äºº"
      ],
      [
        "æĬĢ",
        "å·§"
      ],
      [
        "å¯",
        "Ł"
      ],
      [
        "åį",
        "°"
      ],
      [
        "çļĦå",
        "Ħ"
      ],
      [
        "æ¯",
        "Ĵ"
      ],
      [
        "çī¹",
        "å®ļ"
      ],
      [
        "è",
        "´"
      ],
      [
        "é£",
        "¯"
      ],
      [
        "Ġ",
        "-"
      ],
      [
        "çŃī",
        "æĸ¹éĿ¢"
      ],
      [
        "åĪĨ",
        "éĲĺ"
      ],
      [
        "æŃ¡",
        "è¿İ"
      ],
      [
        "èĢģ",
        "å¸«"
      ],
      [
        "éĢ²",
        "ä¸ĢæŃ¥"
      ],
      [
        "ä»¤",
        "äºº"
      ],
      [
        "å¢ŀ",
        "å¼·"
      ],
      [
        "æĢĿ",
        "èĢĥ"
      ],
      [
        "èª",
        "²"
      ],
      [
        "èªŀ",
        "éŁ³"
      ],
      [
        "æĸĩ",
        "åŃ¸"
      ],
      [
        "é",
        "ĭ"
      ],
      [
        "æĦŁ",
        "è¦º"
      ],
      [
        "æıĲ",
        "åĪ°"
      ],
      [
        "æ¯",
        "Ľ"
      ],
      [
        "åĢĭ",
        "èĺĭæŀľ"
      ],
      [
        "ä½į",
        "ç½®"
      ],
      [
        "çµ",
        "ķ"
      ],
      [
        "çļĦåŁ",
        "º"
      ],
      [
        "åĸ",
        "Ŀ"
      ],
      [
        "çı",
        "Ń"
      ],
      [
        "åĥ¹",
        "æł¼"
      ],
      [
        "è±",
        "Ĩ"
      ],
      [
        "åķ",
        "Ĭ"
      ],
      [
        "éĢŁ",
        "åº¦"
      ],
      [
        "ç¬¬",
        "äºĮ"
      ],
      [
        "ç¤¾äº¤",
        "åªĴé«Ķ"
      ],
      [
        "æĬ",
        "½"
      ],
      [
        "ä»",
        "ĺ"
      ],
      [
        "çļĦæ",
        "Ģ"
      ],
      [
        "æ©",
        "Ļ"
      ],
      [
        "çģ",
        "½"
      ],
      [
        "è¼¸",
        "åĩº"
      ],
      [
        "çį",
        "»"
      ],
      [
        "ä»¥",
        "ä¾¿"
      ],
      [
        "å³",
        "°"
      ],
      [
        "è¡Į",
        "æĺŁ"
      ],
      [
        "åł´",
        "æĻ¯"
      ],
      [
        "å¹",
        "»"
      ],
      [
        "æĦŁ",
        "è¬Ŀ"
      ],
      [
        "çļĦåĭ",
        "ķ"
      ],
      [
        "åį",
        "Ī"
      ],
      [
        "åį",
        "ĥ"
      ],
      [
        "èĨ",
        "ł"
      ],
      [
        "èģ",
        "ļ"
      ],
      [
        "åŃ¸",
        "æł¡"
      ],
      [
        "è·",
        "Ł"
      ],
      [
        "çļĦç",
        "ľ"
      ],
      [
        "çļĦæķ",
        "¸"
      ],
      [
        "çļĦæĹ",
        "ħ"
      ],
      [
        "é¾",
        "į"
      ],
      [
        "å®¹",
        "æĺĵ"
      ],
      [
        "æ©Ł",
        "æľĥ"
      ],
      [
        "åķ",
        "Ł"
      ],
      [
        "çļĦæĬĢ",
        "è¡ĵ"
      ],
      [
        "é§ķ",
        "é§Ľ"
      ],
      [
        "æŃ£",
        "éĿ¢"
      ],
      [
        "æ©ŁåĻ¨",
        "äºº"
      ],
      [
        "åıª",
        "æľī"
      ],
      [
        "éĢĻ",
        "ä¸Ģ"
      ],
      [
        "çļĦæ°",
        "´"
      ],
      [
        "éĢĻ",
        "æĺ¯ä¸ĢåĢĭ"
      ],
      [
        "æ·±åº¦",
        "åŃ¸ç¿Ĵ"
      ],
      [
        "ä½",
        "Ī"
      ],
      [
        "çļĦå¿",
        "ĥ"
      ],
      [
        "å¡",
        "ĳ"
      ],
      [
        "ç¿Ĵ",
        "æħ£"
      ],
      [
        "ç¹¼",
        "çºĮ"
      ],
      [
        "ç¬",
        "ĳ"
      ],
      [
        "å¿«",
        "éĢŁ"
      ],
      [
        "é",
        "Ħ"
      ],
      [
        "äºº",
        "åĵ¡"
      ],
      [
        "ä¹",
        "ħ"
      ],
      [
        "çļĦå",
        "İ"
      ],
      [
        "æ¶ī",
        "åıĬ"
      ],
      [
        "ç¶²",
        "ç«Ļ"
      ],
      [
        "å¤§",
        "åĪ©"
      ],
      [
        "çĥ",
        "Ī"
      ],
      [
        "èĪ",
        "¬"
      ],
      [
        "æ¦Ĥ",
        "æĭ¬"
      ],
      [
        "æĦı",
        "èŃĺ"
      ],
      [
        "µ",
        "çī©"
      ],
      [
        "çļĦå",
        "ĵ"
      ],
      [
        "èĪ",
        "ª"
      ],
      [
        "çļĦåģ",
        "¥"
      ],
      [
        "æĢ§",
        "çļĦ"
      ],
      [
        "åģļ",
        "åĩº"
      ],
      [
        "çµĦ",
        "æĪĲ"
      ],
      [
        "ä¸į",
        "åı¯"
      ],
      [
        "è®Ĭ",
        "æļĸ"
      ],
      [
        "éĬ",
        "Ģ"
      ],
      [
        "éģ©",
        "çķ¶"
      ],
      [
        "ç¶ĵ",
        "å¸¸"
      ],
      [
        "æĦı",
        "ç¾©"
      ],
      [
        "åĲį",
        "åŃĹ"
      ],
      [
        "é¼",
        "ĵ"
      ],
      [
        "è³¼",
        "çī©"
      ],
      [
        "å¤ļ",
        "ç¨®"
      ],
      [
        "çĳ",
        "ª"
      ],
      [
        "å¤ļ",
        "åĢĭ"
      ],
      [
        "åĿ",
        "Ĳ"
      ],
      [
        "èĺ",
        "Ń"
      ],
      [
        "æĨ",
        "¶"
      ],
      [
        "æıĲä¾Ľ",
        "äºĨ"
      ],
      [
        "æķ",
        "ħ"
      ],
      [
        "è»Ł",
        "é«Ķ"
      ],
      [
        "æ»¿",
        "è¶³"
      ],
      [
        "å½",
        "Ļ"
      ],
      [
        "çļĦç§",
        "ĳ"
      ],
      [
        "èĩª",
        "æĪĳ"
      ],
      [
        "é¡",
        "į"
      ],
      [
        "åĲį",
        "è©ŀ"
      ],
      [
        "çļĦ",
        "è³ĩæĸĻ"
      ],
      [
        "æĸ¹",
        "åĲĳ"
      ],
      [
        "è¦ĸ",
        "è¦º"
      ],
      [
        "ç´",
        "į"
      ],
      [
        "èĥĮ",
        "æĻ¯"
      ],
      [
        "åı¯ä»¥",
        "åľ¨"
      ],
      [
        "æ°´",
        "å¹³"
      ],
      [
        "è©©",
        "æŃĮ"
      ],
      [
        "çļĦ",
        "å¤©æ°£"
      ],
      [
        "é¡",
        "§"
      ],
      [
        "åĲĮæĻĤ",
        "ä¹Ł"
      ],
      [
        "çļĦåĦ",
        "ª"
      ],
      [
        "å¾ŀ",
        "æĸĩç«ł"
      ],
      [
        "æĭ",
        "¿"
      ],
      [
        "èĸ",
        "©"
      ],
      [
        "ä½",
        "µ"
      ],
      [
        "åİ»",
        "äºĨ"
      ],
      [
        "åıĥ",
        "èĪĩ"
      ],
      [
        "æª¢",
        "æŁ¥"
      ],
      [
        "æĸĩåŃĹ",
        "ä¸Ń"
      ],
      [
        "è",
        "Ŀ"
      ],
      [
        "æĬķ",
        "è³ĩ"
      ],
      [
        "æľĥ",
        "èŃ°"
      ],
      [
        "ä¼",
        "´"
      ],
      [
        "æĮī",
        "çħ§"
      ],
      [
        "é",
        "ŀĭ"
      ],
      [
        "çļĦ",
        "å°ı"
      ],
      [
        "å¦Ĥ",
        "ä¸ĭ"
      ],
      [
        "ä¸ĭ",
        "ä¾Ĩ"
      ],
      [
        "è¿",
        "·"
      ],
      [
        "é©",
        "Ł"
      ],
      [
        "çļĦ",
        "éĹľéįµ"
      ],
      [
        "å¤ı",
        "å¤©"
      ],
      [
        "çī©",
        "åĵģ"
      ],
      [
        "ç¢",
        "³"
      ],
      [
        "ç©º",
        "æ°£"
      ],
      [
        "æ´",
        "ŀ"
      ],
      [
        "å°įè©±",
        "åħ§å®¹"
      ],
      [
        "ç¾İ",
        "åĳ³"
      ],
      [
        "å»º",
        "ç¯ī"
      ],
      [
        "å¥",
        "§"
      ],
      [
        "æľ",
        "«"
      ],
      [
        "çŁŃ",
        "èªŀ"
      ],
      [
        "æ¸",
        "¸"
      ],
      [
        "è³",
        "ŀ"
      ],
      [
        "å¹",
        "¸"
      ],
      [
        "ç©",
        "©"
      ],
      [
        "æĬ",
        "±"
      ],
      [
        "é",
        "ī"
      ],
      [
        "çļĦæ",
        "²"
      ],
      [
        "ä½į",
        "æĸ¼"
      ],
      [
        "ä¼",
        "°"
      ],
      [
        "æ¸ħ",
        "æĻ"
      ],
      [
        "ç°¡",
        "çŁŃ"
      ],
      [
        "é¡ŀ",
        "åĪ¥"
      ],
      [
        "åį",
        "Ĭ"
      ],
      [
        "ç¶ĵ",
        "åħ¸"
      ],
      [
        "ç¾İ",
        "å¥½"
      ],
      [
        "è«ĭ",
        "ä½ł"
      ],
      [
        "çļĦå¥",
        "½"
      ],
      [
        "æľ¬",
        "æĽ¸"
      ],
      [
        "èª",
        "°"
      ],
      [
        "äºĭ",
        "å¯¦"
      ],
      [
        "çļĦæ",
        "Ľ"
      ],
      [
        "åİŁ",
        "åĽł"
      ],
      [
        "1",
        "5"
      ],
      [
        "å£",
        "ŀ"
      ],
      [
        "æĽ",
        "¾"
      ],
      [
        "çĨ",
        "Ł"
      ],
      [
        "ä»Ģéº¼",
        "æĺ¯"
      ],
      [
        "è®Ģ",
        "èĢħ"
      ],
      [
        "åľĭ",
        "å®¶"
      ],
      [
        "éĽ",
        "ª"
      ],
      [
        "é",
        "İ"
      ],
      [
        "åŁ·",
        "è¡Į"
      ],
      [
        "ç¹",
        "ģ"
      ],
      [
        "æıĲ",
        "åĪ°äºĨ"
      ],
      [
        "çļĦæ¨",
        "Ļ"
      ],
      [
        "éĻ",
        "³"
      ],
      [
        "æľī",
        "èĳĹ"
      ],
      [
        "å¼ķ",
        "èµ·"
      ],
      [
        "æľ",
        "Ĺ"
      ],
      [
        "çļĦåİ",
        "Ł"
      ],
      [
        "åĩº",
        "ä¾Ĩ"
      ],
      [
        "å½¢",
        "æĪĲ"
      ],
      [
        "åŃ",
        "¤"
      ],
      [
        "è«",
        "ĩ"
      ],
      [
        "éĿ¢",
        "èĩ¨"
      ],
      [
        "æĩī",
        "å°į"
      ],
      [
        "æ´",
        "Ĺ"
      ],
      [
        "è²",
        "´"
      ],
      [
        "éĽ»",
        "è¦ĸ"
      ],
      [
        "ç·´",
        "ç¿Ĵ"
      ],
      [
        "å®",
        "ĺ"
      ],
      [
        "åħĥ",
        "ç´ł"
      ],
      [
        "éŃ",
        "Ķ"
      ],
      [
        "çķ¶çĦ¶",
        "åı¯ä»¥"
      ],
      [
        "æĦ",
        "ī"
      ],
      [
        "éģİ",
        "åİ»"
      ],
      [
        "ç³",
        "¾"
      ],
      [
        "æļ",
        "¢"
      ],
      [
        "æº«",
        "åº¦"
      ],
      [
        "ç´",
        "Ĳ"
      ],
      [
        "æĸ°",
        "å¢ŀ"
      ],
      [
        "æ³",
        "³"
      ],
      [
        "é£",
        "¾"
      ],
      [
        "æĺ¨",
        "å¤©"
      ],
      [
        "å°ı",
        "æĻĤ"
      ],
      [
        "åĪĨ",
        "äº«"
      ],
      [
        "çļĦå¯",
        "¦"
      ],
      [
        "çľ",
        "ģ"
      ],
      [
        "çļĦçł",
        "Ķç©¶"
      ],
      [
        "å°ĩ",
        "æľĥ"
      ],
      [
        "å¸¸",
        "è¦ĭ"
      ],
      [
        "çļĦ",
        "æĸ¹å¼ı"
      ],
      [
        "æŁ",
        "Ķ"
      ],
      [
        "Ġ",
        "åľ¨"
      ],
      [
        "å§",
        "Ĩ"
      ],
      [
        "åĢ¼",
        "å¾Ĺ"
      ],
      [
        "çı¾",
        "å¯¦"
      ],
      [
        "è¶ħ",
        "éģİ"
      ],
      [
        "æ±º",
        "çŃĸ"
      ],
      [
        "ç¯Ħ",
        "åľį"
      ],
      [
        "éĨ",
        "¬"
      ],
      [
        "çļĦ",
        "å·¥ä½ľ"
      ],
      [
        "çĶ",
        "ľ"
      ],
      [
        "æ²",
        "ī"
      ],
      [
        "çļĦåľ°",
        "æĸ¹"
      ],
      [
        "æĪĳ",
        "åĸľæŃ¡"
      ],
      [
        "è·",
        "Ŀ"
      ],
      [
        "æİĴ",
        "æĶ¾"
      ],
      [
        "éģ¸",
        "éłħ"
      ],
      [
        "éĢ",
        "Ķ"
      ],
      [
        "åĬĽ",
        "éĩı"
      ],
      [
        "æĲ",
        "ľ"
      ],
      [
        "åļ´",
        "éĩį"
      ],
      [
        "çĨ",
        "Ĭ"
      ],
      [
        "æķĪ",
        "æŀľ"
      ],
      [
        "èĤ",
        "¡"
      ],
      [
        "çļĦç",
        "¤"
      ],
      [
        "åĨ",
        "¬"
      ],
      [
        "åı£",
        "æĦŁ"
      ],
      [
        "çļĦæŃ",
        "·"
      ],
      [
        "åį",
        "±"
      ],
      [
        "éĢ²",
        "æŃ¥"
      ],
      [
        "å¤§",
        "åŃ¸"
      ],
      [
        "ï¼ģ",
        "<|"
      ],
      [
        "çļĦæ",
        "®"
      ],
      [
        "ç³»",
        "åĪĹ"
      ],
      [
        "å¯¦",
        "éļĽ"
      ],
      [
        "ä¼",
        "½"
      ],
      [
        "ï¼Į",
        "âĢľ"
      ],
      [
        "éĩĿ",
        "å°į"
      ],
      [
        "ç¥ŀ",
        "ç¶ĵ"
      ],
      [
        "æŃ",
        "Ĳ"
      ],
      [
        "åĳ¼",
        "åĲ¸"
      ],
      [
        "æľī",
        "ä¸ĢåĢĭ"
      ],
      [
        "éģ©",
        "æĩī"
      ],
      [
        "çļĦæĥħ",
        "æ³ģ"
      ],
      [
        "æĴ",
        "Ń"
      ],
      [
        "åģ",
        "ľ"
      ],
      [
        "é«ĺ",
        "æķĪ"
      ],
      [
        "éľ",
        "²"
      ],
      [
        "è²",
        "¨"
      ],
      [
        "æŃ",
        "»"
      ],
      [
        "èª¿",
        "æķ´"
      ],
      [
        "éĿ",
        "ł"
      ],
      [
        "éħ",
        "¸"
      ],
      [
        "ç³",
        "ķ"
      ],
      [
        "æ£",
        "®"
      ],
      [
        "æľĢ",
        "åĸľæŃ¡"
      ],
      [
        "å¿",
        "ĺ"
      ],
      [
        "çļĦç",
        "©"
      ],
      [
        "å³",
        "¶"
      ],
      [
        "åĵ¡",
        "å·¥"
      ],
      [
        "è®ĵ",
        "æĪĳåĢĳ"
      ],
      [
        "å¤",
        "«"
      ],
      [
        "äºº",
        "çī©"
      ],
      [
        "æİ",
        "Į"
      ],
      [
        "å®",
        "Ļ"
      ],
      [
        "éļĽ",
        "ç¶²è·¯"
      ],
      [
        "äºĴ",
        "åĭķ"
      ],
      [
        "çŃī",
        "éłĺåŁŁ"
      ],
      [
        "ç¶²",
        "éļĽç¶²è·¯"
      ],
      [
        "å±",
        "Ģ"
      ],
      [
        "åħ¨çĲĥ",
        "è®Ĭæļĸ"
      ],
      [
        "æĿ",
        "¿"
      ],
      [
        "æ¨",
        "ĵ"
      ],
      [
        "çļĦæĻĤ",
        "åĢĻ"
      ],
      [
        "å¾ŀ",
        "éĢĻç¯ĩæĸĩç«ł"
      ],
      [
        "æĺİ",
        "å¤©"
      ],
      [
        "1",
        "2"
      ],
      [
        "æ¢Ŀ",
        "ä»¶"
      ],
      [
        "ç¾©",
        "è©ŀ"
      ],
      [
        "è",
        "Ł"
      ],
      [
        "å®ĩ",
        "å®Ļ"
      ],
      [
        "éģ",
        "º"
      ],
      [
        "çļĦæŃ·",
        "åı²"
      ],
      [
        "åĲĪ",
        "éģ©"
      ],
      [
        "éĿ",
        "©"
      ],
      [
        "çĽ¸",
        "åĲĮ"
      ],
      [
        "çļĦæĹ",
        "¥"
      ],
      [
        "åıĸ",
        "å¾Ĺ"
      ],
      [
        "çĻ",
        "»"
      ],
      [
        "æĦĽ",
        "æĥħ"
      ],
      [
        "æĪĳåĢĳ",
        "æĩīè©²"
      ],
      [
        "ľ",
        "ä¼½"
      ],
      [
        "åĽłçĤº",
        "å®ĥ"
      ],
      [
        "ä¿®",
        "æĶ¹"
      ],
      [
        "éĢĻåĢĭ",
        "åı¥åŃĲ"
      ],
      [
        "3",
        "0"
      ],
      [
        "çĦ¦",
        "æħ®"
      ],
      [
        "çļĦæ",
        "´"
      ],
      [
        "çļĦå",
        "±"
      ],
      [
        "æĥħ",
        "ç¯Ģ"
      ],
      [
        "åī©",
        "ä¸ĭ"
      ],
      [
        "ç¾©",
        "å¤§åĪ©"
      ],
      [
        "åį",
        "ļ"
      ],
      [
        "çļĦæ",
        "ĳ"
      ],
      [
        "æ½",
        "Ľ"
      ],
      [
        "çļĦæ°",
        "£"
      ],
      [
        "æ³ķ",
        "å¾ĭ"
      ],
      [
        "çļĦ",
        "è©±"
      ],
      [
        "å½¢",
        "å¼ı"
      ],
      [
        "éļ",
        "İ"
      ],
      [
        "ä¸Ģ",
        "é¦ĸ"
      ],
      [
        "æ¸ħæĻ",
        "°"
      ],
      [
        "ç¶ł",
        "èī²"
      ],
      [
        "æ·±",
        "åħ¥"
      ],
      [
        "æı",
        "¡"
      ],
      [
        "æļ",
        "Ĺ"
      ],
      [
        "è·",
        "³"
      ],
      [
        "æ¼",
        "¢"
      ],
      [
        "æ¶Ī",
        "è²»"
      ],
      [
        "è¶³",
        "å¤ł"
      ],
      [
        "æī",
        "¿"
      ],
      [
        "æ·",
        "·"
      ],
      [
        "è©ŀ",
        "å½Ļ"
      ],
      [
        "çį",
        "İ"
      ],
      [
        "åľ°",
        "é»ŀ"
      ],
      [
        "åĢ",
        "Ĵ"
      ],
      [
        "èĭ±",
        "èªŀ"
      ],
      [
        "åĢĭ",
        "ç³ĸæŀľ"
      ],
      [
        "éļ±",
        "ç§ģ"
      ],
      [
        "è²¬",
        "ä»»"
      ],
      [
        "èĹ",
        "ı"
      ],
      [
        "æµ·",
        "æ´ĭ"
      ],
      [
        "æľĢä½³",
        "åĮĸ"
      ],
      [
        "æ±",
        "Ł"
      ],
      [
        "ç´°",
        "ç¯Ģ"
      ],
      [
        "åĭ",
        "ĩ"
      ],
      [
        "çŃĸ",
        "çķ¥"
      ],
      [
        "çļĦæ®",
        "µ"
      ],
      [
        "ç§",
        "Ģ"
      ],
      [
        "çļĦåŁ",
        "İ"
      ],
      [
        "å¯¦",
        "é«Ķ"
      ],
      [
        "æ¹",
        "¯"
      ],
      [
        "çļĦ",
        "å¤§"
      ],
      [
        "çĽ¸",
        "ä¼¼"
      ],
      [
        "å·§",
        "åħĭ"
      ],
      [
        "æ£",
        "Ĵ"
      ],
      [
        "éģĵ",
        "å¾·"
      ],
      [
        "èĹ¥",
        "çī©"
      ],
      [
        "è¿",
        "´"
      ],
      [
        "åħ¬åı¸",
        "çļĦ"
      ],
      [
        "åģ",
        "ı"
      ],
      [
        "å·",
        "¦"
      ],
      [
        "10",
        "0"
      ],
      [
        "ä¸¦",
        "åľ¨"
      ],
      [
        "ç·ļ",
        "ä¸Ĭ"
      ],
      [
        "çļĦåĸ",
        "®"
      ],
      [
        "å¤ļ",
        "æ¨£"
      ],
      [
        "åıį",
        "æĩī"
      ],
      [
        "çļĦæ®µ",
        "èĲ½"
      ],
      [
        "çļĦ",
        "é£Łçī©"
      ],
      [
        "æıĲ",
        "åĩº"
      ],
      [
        "çļĦç¤",
        "¾"
      ],
      [
        "åł±",
        "åĳĬ"
      ],
      [
        "åīµ",
        "æĦı"
      ],
      [
        "éĨ",
        "Ĵ"
      ],
      [
        "ä¾ĭ",
        "åŃĲ"
      ],
      [
        "éł",
        "ĵ"
      ],
      [
        "å®",
        "Ī"
      ],
      [
        "ç§ĳåŃ¸",
        "å®¶"
      ],
      [
        "Ŀ",
        "éĢļ"
      ],
      [
        "æı",
        "®"
      ],
      [
        "çĦ¡",
        "è«ĸ"
      ],
      [
        "çļĦå½",
        "¢"
      ],
      [
        "åŃ£",
        "ç¯Ģ"
      ],
      [
        "çĩ",
        "Ī"
      ],
      [
        "æļ",
        "´"
      ],
      [
        "åĪĨé¡ŀ",
        "çĤº"
      ],
      [
        "æ¸¸",
        "æ³³"
      ],
      [
        "éļ",
        "ľ"
      ],
      [
        "éĸ",
        "Ĵ"
      ],
      [
        "ĥ",
        "¹"
      ],
      [
        "è¢",
        "ĭ"
      ],
      [
        "æľ",
        "Ŀ"
      ],
      [
        "æ¿",
        "ĥ"
      ],
      [
        "æĺ¯",
        "çļĦ"
      ],
      [
        "ä¸Ģ",
        "æ¨£"
      ],
      [
        "ä¿Ŀ",
        "åģ¥"
      ],
      [
        "æł¹æĵļ",
        "ä»¥ä¸ĭ"
      ],
      [
        "éı",
        "Ī"
      ],
      [
        "çļĦæ",
        "¼"
      ],
      [
        "çļĦéĩįè¦ģ",
        "æĢ§"
      ],
      [
        "çļĦå",
        "Ĥ"
      ],
      [
        "ä»į",
        "çĦ¶"
      ],
      [
        "éĽ»",
        "èħ¦"
      ],
      [
        "ä¸Ģ",
        "ç¯ĩæĸĩç«ł"
      ],
      [
        "æĶ¿",
        "çŃĸ"
      ],
      [
        "åģ¥",
        "èº«"
      ],
      [
        "ä»¥ä¸ĭ",
        "æĺ¯ä¸Ģ"
      ],
      [
        "å¸¶ä¾Ĩ",
        "äºĨ"
      ],
      [
        "åĲĪ",
        "çĲĨ"
      ],
      [
        "åı",
        "³"
      ],
      [
        "ä¸į",
        "éģİ"
      ],
      [
        "çļĦæ",
        "Ŀ"
      ],
      [
        "çļĦåī",
        "µ"
      ],
      [
        "ç¥ŀ",
        "ç§ĺ"
      ],
      [
        "æ¨¡",
        "å¼ı"
      ],
      [
        "çºĮ",
        "å¯«"
      ],
      [
        "åĦ",
        "²"
      ],
      [
        "å°",
        "ģ"
      ],
      [
        "å·§åħĭ",
        "åĬĽ"
      ],
      [
        "åľ",
        "ĵ"
      ],
      [
        "å¹³",
        "è¡¡"
      ],
      [
        "æĶ¹",
        "éĢ²"
      ],
      [
        "è¡",
        "Ĺ"
      ],
      [
        "çĭĢ",
        "æħĭ"
      ],
      [
        ".",
        "."
      ],
      [
        "çĬ",
        "¯"
      ],
      [
        "çļĦåģ¥",
        "åº·"
      ],
      [
        "æĹ¥",
        "æľ¬"
      ],
      [
        "ç«¶",
        "çĪŃ"
      ],
      [
        "çĹ",
        "Ľ"
      ],
      [
        "åľ¨",
        "å®¶"
      ],
      [
        "å°ıæĺİ",
        "æľī"
      ],
      [
        "èĢ",
        "Ĳ"
      ],
      [
        "åľĭ",
        "éļĽ"
      ],
      [
        "åº",
        "Ĭ"
      ],
      [
        "çļĦçĴ°",
        "å¢ĥ"
      ],
      [
        "çļĦå",
        "ĳ"
      ],
      [
        "æĭ",
        "¼"
      ],
      [
        "çļĦæķ",
        "Ī"
      ],
      [
        "ç¬¦",
        "åĲĪ"
      ],
      [
        "é¼ĵ",
        "åĭµ"
      ],
      [
        "èĦ",
        "Ĥ"
      ],
      [
        "æĺİ",
        "ç¢º"
      ],
      [
        "çĳ",
        "ľä¼½"
      ],
      [
        "æľĢ",
        "å¤§"
      ],
      [
        "ç®",
        "±"
      ],
      [
        "ä»ĭç´¹",
        "äºĨ"
      ],
      [
        "çı¾",
        "è±¡"
      ],
      [
        "éĢĲ",
        "æ¼¸"
      ],
      [
        "åı£",
        "åĳ³"
      ],
      [
        "ç¸½",
        "æĺ¯"
      ],
      [
        "ç·©",
        "è§£"
      ],
      [
        "ç´Ĳ",
        "ç´Ħ"
      ],
      [
        "è®ĵ",
        "ä½ł"
      ],
      [
        "æĥħ",
        "ç·Ĵ"
      ],
      [
        "åŁ",
        "¹"
      ],
      [
        "çļĦæ",
        "µ·"
      ],
      [
        "è¸",
        "ı"
      ],
      [
        "5",
        "0"
      ],
      [
        "ä¹",
        "İ"
      ],
      [
        "æķ",
        "ĳ"
      ],
      [
        "æĦŁ",
        "åıĹ"
      ],
      [
        "è¤",
        "²"
      ],
      [
        "æĬ",
        "Ĺ"
      ],
      [
        "çī©",
        "çĲĨ"
      ],
      [
        "æ°",
        "¸"
      ],
      [
        "è²",
        "¢"
      ],
      [
        "åīµ",
        "ä½ľ"
      ],
      [
        "è©ŀ",
        "èªŀ"
      ],
      [
        "Ġ",
        "="
      ],
      [
        "äºº",
        "åĲį"
      ],
      [
        "çļĦæ",
        "±"
      ],
      [
        "æ¸¬",
        "è©¦"
      ],
      [
        "çļĦæĳ",
        "ĺè¦ģ"
      ],
      [
        "åħ¶",
        "æ¬¡"
      ],
      [
        "çļĦå",
        "ł"
      ],
      [
        "åıĹ",
        "æŃ¡è¿İ"
      ],
      [
        "åĽ°",
        "éĽ£"
      ],
      [
        "ç«",
        "¥"
      ],
      [
        "åį³",
        "åı¯"
      ],
      [
        "è¼",
        "Ľ"
      ],
      [
        "çļĦ",
        "ä¸»"
      ],
      [
        "æıĲä¾Ľ",
        "ä¸ĢåĢĭ"
      ],
      [
        "ç´",
        "Ļ"
      ],
      [
        "çĶŁæ´»",
        "ä¸Ń"
      ],
      [
        "ä¸Ĭ",
        "åįĩ"
      ],
      [
        "å¡ĳ",
        "èĨł"
      ],
      [
        "å·¥",
        "ç¨ĭ"
      ],
      [
        "çµ",
        "²"
      ],
      [
        "ä¸ĸ",
        "ç´Ģ"
      ],
      [
        "åĪĨ",
        "çµ¦"
      ],
      [
        "ç±",
        "į"
      ],
      [
        "æ½",
        "®"
      ],
      [
        "æł",
        "¸"
      ],
      [
        "æİ¨",
        "åĭķ"
      ],
      [
        "è£½",
        "éĢł"
      ],
      [
        "ç´ħ",
        "èī²"
      ],
      [
        "é¹",
        "½"
      ],
      [
        "æľĢ",
        "æĸ°"
      ],
      [
        "çļĦåŁİ",
        "å¸Ĥ"
      ],
      [
        "éĻĲ",
        "åĪ¶"
      ],
      [
        "è¿½",
        "æ±Ĥ"
      ],
      [
        "æ¸Ľ",
        "è¼ķ"
      ],
      [
        "è·Ŀ",
        "éĽ¢"
      ],
      [
        "é»",
        "İ"
      ],
      [
        "å®¶",
        "å±ħ"
      ],
      [
        "æŁĲ",
        "äºĽ"
      ],
      [
        "æĻ¯",
        "é»ŀ"
      ],
      [
        "ä¹ĭ",
        "åīį"
      ],
      [
        "çļĦç",
        "¬"
      ],
      [
        "æ¬",
        "£"
      ],
      [
        "çħ",
        "®"
      ],
      [
        "æĩīçĶ¨",
        "æĸ¼"
      ],
      [
        "çĶŁæħĭ",
        "ç³»çµ±"
      ],
      [
        "ä¸Ģ",
        "åı¥è©±"
      ],
      [
        "æ",
        "¦"
      ],
      [
        "ç©º",
        "éĸĵ"
      ],
      [
        "å¤ª",
        "ç©º"
      ],
      [
        "çļĦ",
        "åħ§å®¹"
      ],
      [
        "èĨ",
        "ļ"
      ],
      [
        "è©ķ",
        "ä¼°"
      ],
      [
        "çļĦ",
        "ä¸ĢåĢĭ"
      ],
      [
        "ç¶",
        "ľ"
      ],
      [
        "è§£æ±º",
        "æĸ¹æ¡Ī"
      ],
      [
        "æıĲ",
        "åįĩ"
      ],
      [
        "å",
        "´"
      ],
      [
        "å½±",
        "çīĩ"
      ],
      [
        "1",
        "8"
      ],
      [
        "æĽ´",
        "å¥½çļĦ"
      ],
      [
        "å¹³",
        "èĩº"
      ],
      [
        "è²¢",
        "çį»"
      ],
      [
        "çĶ¨",
        "ä¾Ĩ"
      ],
      [
        "æĲŃ",
        "éħį"
      ],
      [
        "åĢĭ",
        "æĢ§"
      ],
      [
        "å¡",
        "Ķ"
      ],
      [
        "æ»",
        "ĳ"
      ],
      [
        "ä¸ĸçķĮ",
        "ä¸ĬæľĢ"
      ],
      [
        "å¿«",
        "æ¨Ĥ"
      ],
      [
        "åħ¬",
        "åħ±"
      ],
      [
        "ä¸ĭ",
        "æĸĩ"
      ],
      [
        "éį",
        "ĭ"
      ],
      [
        "æĻļ",
        "ä¸Ĭ"
      ],
      [
        "é«",
        "®"
      ],
      [
        "æĪĲ",
        "éķ·"
      ],
      [
        "çĩŁ",
        "é¤Ĭ"
      ],
      [
        "å¹",
        "£"
      ],
      [
        "åº¦",
        "åĴĮ"
      ],
      [
        "å",
        "²"
      ],
      [
        "æĻĤ",
        "å°ļ"
      ],
      [
        "äºĨ",
        "è§£"
      ],
      [
        "ç¥",
        "Ŀ"
      ],
      [
        "æĵ",
        "´"
      ],
      [
        "æ¨¡",
        "æĵ¬"
      ],
      [
        "åľ",
        "Ī"
      ],
      [
        "ä½¿åħ¶",
        "æĽ´åĬł"
      ],
      [
        "çļĦå",
        "¸"
      ],
      [
        "ä¾Ĩ",
        "èĩª"
      ],
      [
        "èª¿",
        "æŁ¥"
      ],
      [
        "ä¸Ģ",
        "å®¶"
      ],
      [
        "çı",
        "į"
      ],
      [
        "å®",
        "®"
      ],
      [
        "çĭĢ",
        "æ³ģ"
      ],
      [
        "æĦı",
        "æĢĿ"
      ],
      [
        "æ±",
        "ł"
      ],
      [
        "æ©Ļ",
        "åŃĲ"
      ],
      [
        "å¤ı",
        "åŃ£"
      ],
      [
        "éī",
        "Ľ"
      ],
      [
        "åĵª",
        "åĢĭ"
      ],
      [
        "æ¹",
        "ĸ"
      ],
      [
        "çļĦå",
        "ĥ¹"
      ],
      [
        "åĲ«",
        "ç¾©"
      ],
      [
        "æ°£",
        "é«Ķ"
      ],
      [
        "è¦",
        "Ĩ"
      ],
      [
        "çīĽ",
        "å¥¶"
      ],
      [
        "ä¹",
        "ĺ"
      ],
      [
        "æĺ¯",
        "çĶ±"
      ],
      [
        "åħ©åĢĭ",
        "åı¥åŃĲ"
      ],
      [
        "å¼µ",
        "ä¸ī"
      ],
      [
        "ç±",
        "ĥ"
      ],
      [
        "æŃ",
        "§"
      ],
      [
        "_",
        "_"
      ],
      [
        "éģĶ",
        "åĪ°"
      ],
      [
        "ä¹Ł",
        "æľĥ"
      ],
      [
        "æĵ",
        "į"
      ],
      [
        "æĺ",
        "ł"
      ],
      [
        "çļĦåĸ®",
        "è©ŀ"
      ],
      [
        "è«ĸ",
        "æĸĩ"
      ],
      [
        "å®Į",
        "åħ¨"
      ],
      [
        "ç©©",
        "å®ļ"
      ],
      [
        "æ±",
        "ģ"
      ],
      [
        "åĴĮ",
        "åħ¶ä»ĸ"
      ],
      [
        "è¨ĺ",
        "éĮĦ"
      ],
      [
        "å¿",
        "Ļ"
      ],
      [
        "æĹ©",
        "ä¸Ĭ"
      ],
      [
        "åľ°",
        "æĸ¹"
      ],
      [
        "å¹³",
        "åĿĩ"
      ],
      [
        "æ©Ł",
        "æ§ĭ"
      ],
      [
        "ãĢĤâĢĿ",
        "<|"
      ],
      [
        "ä¸Ģ",
        "èĪ¬"
      ],
      [
        "çµ¦åĩº",
        "ä¸ĢåĢĭ"
      ],
      [
        "æĲ",
        "į"
      ],
      [
        "éĢĻ",
        "å®¶"
      ],
      [
        "å¾",
        "ĳ"
      ],
      [
        "æĪ¶",
        "å¤ĸ"
      ],
      [
        "æķ£",
        "æŃ¥"
      ],
      [
        "å¥",
        "®"
      ],
      [
        "çį²",
        "åıĸ"
      ],
      [
        "å°Ĭ",
        "éĩį"
      ],
      [
        "çĩŁ",
        "éĬ·"
      ],
      [
        "éĨ«çĻĤ",
        "ä¿Ŀåģ¥"
      ],
      [
        "å±ķ",
        "ç¤º"
      ],
      [
        "çĽ¸",
        "ä¿¡"
      ],
      [
        "çĽ´",
        "æİ¥"
      ],
      [
        "æĪĲ",
        "æľ¬"
      ],
      [
        "åı¯èĥ½",
        "æĺ¯"
      ],
      [
        "åĪĹ",
        "è¡¨"
      ],
      [
        "åŃ¸ç¿Ĵ",
        "åĴĮ"
      ],
      [
        "éĤ£",
        "è£¡"
      ],
      [
        "æĦı",
        "åĳ³"
      ],
      [
        "åħ",
        "Ń"
      ],
      [
        "ä¸¦",
        "ä¸į"
      ],
      [
        "æĿ",
        "ĳ"
      ],
      [
        "æŃ¥",
        "é©Ł"
      ],
      [
        "æĪĳ",
        "èªįçĤº"
      ],
      [
        "ç¸",
        "®"
      ],
      [
        "çļĦæĢ",
        "Ŀ"
      ],
      [
        "åĽŀçŃĶ",
        "åķıé¡Į"
      ],
      [
        "åİŁ",
        "å§ĭ"
      ],
      [
        "çĩ",
        "Ĵ"
      ],
      [
        "ç½",
        "ª"
      ],
      [
        "åĪĨ",
        "åĪ¥"
      ],
      [
        "æĹ¥",
        "å¸¸"
      ],
      [
        "çµ¦",
        "ä½ł"
      ],
      [
        "çł",
        "Ķ"
      ],
      [
        "åŁº",
        "ç¤İ"
      ],
      [
        "å½¢",
        "å®¹"
      ],
      [
        "ä¸ĢåĢĭ",
        "äºº"
      ],
      [
        "æŁ¥",
        "è©¢"
      ],
      [
        "é",
        "ª"
      ],
      [
        "ä¸Ĭ",
        "æµ·"
      ],
      [
        "çļĦåĽ",
        "ŀ"
      ],
      [
        "éīĽ",
        "çŃĨ"
      ],
      [
        "éº",
        "¥"
      ],
      [
        "è¡¨éģĶ",
        "äºĨ"
      ],
      [
        "å»ºç«ĭ",
        "ä¸ĢåĢĭ"
      ],
      [
        "æĪĳ",
        "å¾Ī"
      ],
      [
        "ç¨ĭ",
        "åº¦"
      ],
      [
        "åĭ",
        "ŀ"
      ],
      [
        "å¢ŀ",
        "éķ·"
      ],
      [
        "çļĦç",
        "³"
      ],
      [
        "çļĦæ",
        "³"
      ],
      [
        "å·´",
        "é»İ"
      ],
      [
        "æ·±",
        "åĪ»"
      ],
      [
        "çĤ",
        "Ĵ"
      ],
      [
        "æĢ",
        "¥"
      ],
      [
        "éģ",
        "į"
      ],
      [
        "ä»¥",
        "ç¢ºä¿Ŀ"
      ],
      [
        "æ´",
        "¾"
      ],
      [
        "èĽĭ",
        "çĻ½"
      ],
      [
        "åİ",
        "ļ"
      ],
      [
        "è¶³",
        "çĲĥ"
      ],
      [
        "çĽ",
        "¤"
      ],
      [
        "è¡",
        "Ŀ"
      ],
      [
        "æĶ¹",
        "å¯«"
      ],
      [
        "æĦıåĳ³",
        "èĳĹ"
      ],
      [
        "éĢĻ",
        "ç¯ĩ"
      ],
      [
        "èĩ³",
        "å°ĳ"
      ],
      [
        "çļĦç",
        "¸"
      ],
      [
        "éĩı",
        "åŃĲ"
      ],
      [
        "æŀ",
        "¶"
      ],
      [
        "çļĦ",
        "æĸ°"
      ],
      [
        "çļĦ",
        "äºĭæĥħ"
      ],
      [
        "æĸ¹",
        "ä¾¿"
      ],
      [
        "çĩ",
        "ĥ"
      ],
      [
        "ç",
        "Ģ"
      ],
      [
        "é¤",
        "ħ"
      ],
      [
        "æĽ¿",
        "æıĽ"
      ],
      [
        "æĸ°èģŀ",
        "åł±éģĵ"
      ],
      [
        "ä¸Ģ",
        "å¤©"
      ],
      [
        "åı¯ä»¥",
        "ä½¿çĶ¨"
      ],
      [
        "çķ¶",
        "åīį"
      ],
      [
        "æĩīçĶ¨",
        "ç¨ĭå¼ı"
      ],
      [
        "é¡ŀ",
        "ä¼¼"
      ],
      [
        "çµ¦å®ļ",
        "çļĦæĸĩåŃĹ"
      ],
      [
        "å»£",
        "åĳĬ"
      ],
      [
        "åĪ",
        "º"
      ],
      [
        "å¯«",
        "ä½ľ"
      ],
      [
        "è¨",
        "Ĥ"
      ],
      [
        "çİ",
        "ī"
      ],
      [
        "éĻ",
        "Ħ"
      ],
      [
        "æŃ",
        "ī"
      ],
      [
        "æ°£",
        "æº«"
      ],
      [
        "ä¿Ŀ",
        "èŃī"
      ],
      [
        "å¹¸",
        "ç¦ı"
      ],
      [
        "æĲľ",
        "å°ĭ"
      ],
      [
        "å¤©",
        "ç©º"
      ],
      [
        "éľ",
        "ĩ"
      ],
      [
        "è¡¨",
        "éĿ¢"
      ],
      [
        "å°",
        "¤"
      ],
      [
        "ä¸į",
        "çŁ¥éģĵ"
      ],
      [
        "ä¸Ģ",
        "çµĦ"
      ],
      [
        "æİ¨",
        "å»£"
      ],
      [
        "æĤ",
        "ħ"
      ],
      [
        "åķĨ",
        "æ¥Ń"
      ],
      [
        "é",
        "ĳ"
      ],
      [
        "çļĦç",
        "ĭ"
      ],
      [
        "åłħ",
        "æĮģ"
      ],
      [
        "ç¸",
        "¾"
      ],
      [
        "æĶ",
        "»"
      ],
      [
        "éĽ",
        "ħ"
      ],
      [
        "æ½",
        "¤"
      ],
      [
        "åĳ",
        "Ī"
      ],
      [
        "å®ļ",
        "ç¾©"
      ],
      [
        "æľĢ",
        "å¥½"
      ],
      [
        "o",
        "n"
      ],
      [
        "å¯¦",
        "é©Ĺ"
      ],
      [
        "æ¶",
        "¼"
      ],
      [
        "æ¯ıåĢĭ",
        "æľĭåıĭ"
      ],
      [
        "åı¥åŃĲ",
        "ä¸Ń"
      ],
      [
        "çµĲ",
        "åĲĪ"
      ],
      [
        "æĬ",
        "ĺ"
      ],
      [
        "åĪĨ",
        "åĪ°"
      ],
      [
        "å¿ħ",
        "è¦ģ"
      ],
      [
        "è§Ģ",
        "çľ¾"
      ],
      [
        "æ£",
        "Ħ"
      ],
      [
        "çļĦåķ",
        "Ĩ"
      ],
      [
        "çĻ¼",
        "æı®"
      ],
      [
        "åı¯æĮģçºĮ",
        "çĻ¼å±ķ"
      ],
      [
        "çī",
        "Ļ"
      ],
      [
        "è¡£",
        "æľį"
      ],
      [
        "éľĢè¦ģ",
        "æ³¨æĦı"
      ],
      [
        "åĽ",
        "º"
      ],
      [
        "çľŁ",
        "æŃ£"
      ],
      [
        "å¹",
        "ħ"
      ],
      [
        "çļĦæĦ",
        "Ľ"
      ],
      [
        "çļĦæĻ",
        "º"
      ],
      [
        "é¨",
        "İ"
      ],
      [
        "ä¸»",
        "ç¾©"
      ],
      [
        "æİ",
        "ī"
      ],
      [
        "æģ",
        "Ĳ"
      ],
      [
        "åĶ",
        "±"
      ],
      [
        "å¯",
        "¬"
      ],
      [
        "æĢĿ",
        "æĥ³"
      ],
      [
        "èĥ½",
        "éĩı"
      ],
      [
        "åı¯ä»¥",
        "è¢«"
      ],
      [
        "èĤ",
        "Į"
      ],
      [
        "è¼ķ",
        "é¬Ĩ"
      ],
      [
        "çĴ°å¢ĥ",
        "ä¿ĿèŃ·"
      ],
      [
        "èĭ",
        "¦"
      ],
      [
        "æĿ",
        "Ł"
      ],
      [
        "åĨ",
        "Ĵ"
      ],
      [
        "çĽ",
        "Ľ"
      ],
      [
        "æİ¥",
        "åıĹ"
      ],
      [
        "æ¤",
        "Ĵ"
      ],
      [
        "å®¶",
        "äºº"
      ],
      [
        "çļĦæ",
        "ł"
      ],
      [
        "å®ĥåĢĳ",
        "çļĦ"
      ],
      [
        "åº",
        "«"
      ],
      [
        "æĹ¥",
        "æľŁ"
      ],
      [
        "éĢ²",
        "åħ¥"
      ],
      [
        "Ľ",
        "æ¨Ĥ"
      ],
      [
        "è¸",
        "Ĳ"
      ],
      [
        "å°",
        "¾"
      ],
      [
        "å®ī",
        "æİĴ"
      ],
      [
        "èĢĮ",
        "ä¸įæĺ¯"
      ],
      [
        "çı",
        "ł"
      ],
      [
        "åŁº",
        "æľ¬"
      ],
      [
        "èī¯",
        "å¥½"
      ],
      [
        "æ£®",
        "æŀĹ"
      ],
      [
        "åľ¨",
        "æľªä¾Ĩ"
      ],
      [
        "åĴĮ",
        "æĸĩåĮĸ"
      ],
      [
        "èĦ",
        "ħ"
      ],
      [
        "éĿ¢",
        "å°į"
      ],
      [
        "ä½ł",
        "éľĢè¦ģ"
      ],
      [
        "åª",
        "½"
      ],
      [
        "ä¸Ģæ®µ",
        "æĸĩåŃĹ"
      ],
      [
        "ä¸ĭ",
        "åĪĹ"
      ],
      [
        "åĨ",
        "ł"
      ],
      [
        "ä½ł",
        "å¥½"
      ],
      [
        "è«ĭ",
        "åĳĬè¨´æĪĳ"
      ],
      [
        "çļĦæı",
        "ı"
      ],
      [
        "çļĦç",
        "ĩ"
      ],
      [
        "çĽ¸",
        "äºĴ"
      ],
      [
        "çļĦæĦı",
        "æĢĿ"
      ],
      [
        "çĿ¡",
        "çľł"
      ],
      [
        "è¨",
        "ª"
      ],
      [
        "åľ¨",
        "ä¸Ģèµ·"
      ],
      [
        "æıĲä¾Ľ",
        "ä¸ĢäºĽ"
      ],
      [
        "åĩº",
        "èī²"
      ],
      [
        "è¨Ń",
        "å®ļ"
      ],
      [
        "èĤ",
        "¥"
      ],
      [
        "åħ±",
        "æľī"
      ],
      [
        "ç¸½",
        "ä¹ĭ"
      ],
      [
        "å¯",
        "Ĵ"
      ],
      [
        "èģ²",
        "éŁ³"
      ],
      [
        "äºĨ",
        "ä¸ĢäºĽ"
      ],
      [
        "å®ļ",
        "æľŁ"
      ],
      [
        "é«ĺ",
        "èĪĪ"
      ],
      [
        "åĪĹ",
        "åĩº"
      ],
      [
        "çĽ¸",
        "å°į"
      ],
      [
        "èª",
        "ł"
      ],
      [
        "èĩªåĭķ",
        "åĮĸ"
      ],
      [
        "ç¶ĵ",
        "éģİ"
      ],
      [
        "é¬",
        "¥"
      ],
      [
        "æµģ",
        "è¡Į"
      ],
      [
        "çĽ®",
        "çļĦåľ°"
      ],
      [
        "çµĲ",
        "è«ĸ"
      ],
      [
        "å¯«",
        "ä¸Ģç¯ĩ"
      ],
      [
        "æĺ¯ä¸Ģ",
        "éĥ¨"
      ],
      [
        "çĶŁ",
        "åŃĺ"
      ],
      [
        "ç¹",
        "ª"
      ],
      [
        "éĤ",
        "ı"
      ],
      [
        "é£²",
        "æĸĻ"
      ],
      [
        "æĥ",
        "¡"
      ],
      [
        "å¤§",
        "å®¶"
      ],
      [
        "èĽĭ",
        "ç³ķ"
      ],
      [
        "çļĦæĽ",
        "¸"
      ],
      [
        "é½",
        "¡"
      ],
      [
        "æº",
        "¼"
      ],
      [
        "ç¿",
        "°"
      ],
      [
        "è¦ı",
        "åĬĥ"
      ],
      [
        "å°ĭ",
        "æ±Ĥ"
      ],
      [
        "çļĦæ¼",
        "Ķ"
      ],
      [
        "éłĲ",
        "éĺ²"
      ],
      [
        "äºº",
        "çĶŁ"
      ],
      [
        "æĪĳ",
        "åľ¨"
      ],
      [
        "æ³",
        "¡"
      ],
      [
        "èº«é«Ķ",
        "åģ¥åº·"
      ],
      [
        "åŃ¤",
        "çį¨"
      ],
      [
        "éĨ«çĻĤ",
        "éłĺåŁŁ"
      ],
      [
        "å®",
        "ľ"
      ],
      [
        "ä¹Ł",
        "æľī"
      ],
      [
        "é¡¯",
        "ç¤º"
      ],
      [
        "è·ĳ",
        "æŃ¥"
      ],
      [
        "éģ©",
        "éĩı"
      ],
      [
        "èŃ",
        "ľ"
      ],
      [
        "èĪ",
        "¹"
      ],
      [
        "å»",
        "¢"
      ],
      [
        "çļĦ",
        "çŃĶæ¡Ī"
      ],
      [
        "çļĦç¸",
        "½"
      ],
      [
        "åı¤",
        "è©©"
      ],
      [
        "ç",
        "¡"
      ],
      [
        "æľ",
        "µ"
      ],
      [
        "åĵª",
        "è£¡"
      ],
      [
        "çµ¦å®ļ",
        "ä¸ĢåĢĭ"
      ],
      [
        "é«Ķ",
        "èĤ²"
      ],
      [
        "æ¼Ķ",
        "åĵ¡"
      ],
      [
        "æº«",
        "æļĸ"
      ],
      [
        "æİ¨",
        "çĲĨ"
      ],
      [
        "æİĮ",
        "æı¡"
      ],
      [
        "æĬ½",
        "åıĸ"
      ],
      [
        "éĤ£",
        "äºĽ"
      ],
      [
        "çĶ",
        "ļ"
      ],
      [
        "æµģ",
        "æļ¢"
      ],
      [
        "éĩį",
        "é»ŀ"
      ],
      [
        "éĸĭ",
        "æĶ¾"
      ],
      [
        "é",
        "´"
      ],
      [
        "èĹį",
        "èī²"
      ],
      [
        "éĢ²è¡Į",
        "åĪĨé¡ŀ"
      ],
      [
        "éł",
        "»"
      ],
      [
        "åīį",
        "å¾Ģ"
      ],
      [
        "å¯",
        "µçī©"
      ],
      [
        "å¥",
        "ı"
      ],
      [
        "æĮĩ",
        "åĩº"
      ],
      [
        "æŃ§",
        "è¦ĸ"
      ],
      [
        "20",
        "2"
      ],
      [
        "æĪĲ",
        "èªŀ"
      ],
      [
        "åĿ",
        "¦"
      ],
      [
        "çļĦ",
        "é¢¨éļª"
      ],
      [
        "æĩ",
        "·"
      ],
      [
        "æľī",
        "åĵªäºĽ"
      ],
      [
        "éĥ½",
        "æľĥ"
      ],
      [
        "è¾",
        "£"
      ],
      [
        "çī©",
        "é«Ķ"
      ],
      [
        "ä¸Ń",
        "æľĢ"
      ],
      [
        "ç¤¾",
        "ç¾¤"
      ],
      [
        "èĻĽ",
        "æĵ¬"
      ],
      [
        "å·¨",
        "å¤§"
      ],
      [
        "æ°§",
        "åĮĸ"
      ],
      [
        "çĲĨ",
        "è«ĸ"
      ],
      [
        "æĪĲçĤº",
        "äºĨ"
      ],
      [
        "åĳ¨",
        "åľį"
      ],
      [
        "éĤı",
        "è¼¯"
      ],
      [
        "è¦ı",
        "åīĩ"
      ],
      [
        "æ¦Ĥ",
        "å¿µ"
      ],
      [
        "éĢ£",
        "ç·ļ"
      ],
      [
        "æķ",
        "Ĺ"
      ],
      [
        "çĳª",
        "éºĹ"
      ],
      [
        "éĽ",
        "¶"
      ],
      [
        "ä¸Ń",
        "æĸĩ"
      ],
      [
        "å¾Ĺ",
        "åĩº"
      ],
      [
        "åľ¨",
        "ä¸ĢåĢĭ"
      ],
      [
        "ç²¾",
        "ç¥ŀ"
      ],
      [
        "ç´Ħ",
        "ç¿°"
      ],
      [
        "èķ",
        "ī"
      ],
      [
        "æ¶",
        "²"
      ],
      [
        "æĹ¨",
        "åľ¨"
      ],
      [
        "çĤ",
        "İ"
      ],
      [
        "å¤ªéĻ½",
        "ç³»"
      ],
      [
        "éĽŀ",
        "èĽĭ"
      ],
      [
        "å¥³",
        "æĢ§"
      ],
      [
        "æ³",
        "°"
      ],
      [
        "åįģ",
        "åĪĨ"
      ],
      [
        "çĹħ",
        "æ¯Ĵ"
      ],
      [
        "è¼",
        "ª"
      ],
      [
        "æĻĤ",
        "åĢĻ"
      ],
      [
        "èĭ±",
        "åľĭ"
      ],
      [
        "è®",
        "ļ"
      ],
      [
        "åıª",
        "æĺ¯"
      ],
      [
        "éķ·",
        "åº¦"
      ],
      [
        "è£",
        "ľ"
      ],
      [
        "çļĦåİŁ",
        "åĽł"
      ],
      [
        "éĦ",
        "ī"
      ],
      [
        "èĩªåĭķ",
        "é§ķé§Ľ"
      ],
      [
        "ä½¿åħ¶",
        "æĽ´"
      ],
      [
        "åĦª",
        "ç§Ģ"
      ],
      [
        "çļĦæĥ",
        "³"
      ],
      [
        "çļĦæ",
        "¸"
      ],
      [
        "è²",
        "Ŀ"
      ],
      [
        "ä»ĸ",
        "åľ¨"
      ],
      [
        "å¦",
        "Ļ"
      ],
      [
        "èĦ",
        "«"
      ],
      [
        "åĲĦ",
        "åĢĭ"
      ],
      [
        "ä¸Ģ",
        "æ¬¾"
      ],
      [
        "éĢĻ",
        "æ¬¾"
      ],
      [
        "èĥ",
        "¡"
      ],
      [
        "åĪĨ",
        "çĤº"
      ],
      [
        "çļĦæĻ",
        "¯"
      ],
      [
        "æıĲåıĸ",
        "åĩº"
      ],
      [
        "èħ³",
        "è¸ı"
      ],
      [
        "çļĦæ´",
        "»åĭķ"
      ],
      [
        "ä¸Ĭ",
        "éĿ¢"
      ],
      [
        "æķ",
        "¬"
      ],
      [
        "æµ·",
        "çģĺ"
      ],
      [
        "èľ",
        "ľ"
      ],
      [
        "éģ",
        "µ"
      ],
      [
        "é¦Ļ",
        "èķī"
      ],
      [
        "çļĦå",
        "Ĩ"
      ],
      [
        "æ¡",
        "Į"
      ],
      [
        "æº",
        "ĿéĢļ"
      ],
      [
        "èª",
        "Į"
      ],
      [
        "å·¥",
        "æ¥Ń"
      ],
      [
        "äº",
        "¡"
      ],
      [
        "20",
        "0"
      ],
      [
        "ä¸»",
        "äºº"
      ],
      [
        "æĪĳ",
        "éľĢè¦ģ"
      ],
      [
        "éĹľéįµ",
        "è³ĩè¨Ĭ"
      ],
      [
        "éĸ",
        "ī"
      ],
      [
        "éİ",
        "®"
      ],
      [
        "çļĦçŁ",
        "Ń"
      ],
      [
        "æľī",
        "æīĢ"
      ],
      [
        "èŃ",
        "½"
      ],
      [
        "æ··",
        "åĲĪ"
      ],
      [
        "º",
        "ä¹³"
      ],
      [
        "èģ",
        "ĸ"
      ],
      [
        "ï¼ī",
        "ï¼Į"
      ],
      [
        "å¤¢",
        "æĥ³"
      ],
      [
        "å¯«",
        "ä¸ĢåĢĭ"
      ],
      [
        "åĵ",
        "¥"
      ],
      [
        "æĸ°",
        "é®®"
      ],
      [
        "èĤ",
        "¯"
      ],
      [
        "ç",
        "ĺ"
      ],
      [
        "æĺ¯",
        "ä¸Ńåľĭ"
      ],
      [
        "ä¹ĭ",
        "å¾Į"
      ],
      [
        "æĬ±",
        "æŃī"
      ],
      [
        "ç§",
        "»"
      ],
      [
        "çĶ",
        "³"
      ],
      [
        "å",
        "«"
      ],
      [
        "çŁŃ",
        "æĸĩ"
      ],
      [
        "æľĢ",
        "é«ĺ"
      ],
      [
        "åĭķ",
        "ä½ľ"
      ],
      [
        "æ¨Ļ",
        "æºĸ"
      ],
      [
        "èħ³è¸ı",
        "è»Ĭ"
      ],
      [
        "å°ı",
        "åŃ¸"
      ],
      [
        "è¨ĺ",
        "æĨ¶"
      ],
      [
        "çļĦç",
        "·"
      ],
      [
        "é«ĺ",
        "åº¦"
      ],
      [
        "çĬ",
        "¬"
      ],
      [
        "è§",
        "¸"
      ],
      [
        "æĸĩåĮĸ",
        "åĴĮ"
      ],
      [
        "åĮĸ",
        "çļĦ"
      ],
      [
        "æĩ",
        "Ĥ"
      ],
      [
        "ãĢĭ",
        "ãĢģ"
      ],
      [
        "åļ",
        "Ĳ"
      ],
      [
        "ç¥ŀç¶ĵ",
        "ç¶²è·¯"
      ],
      [
        "è«ĭ",
        "çµ¦æĪĳ"
      ],
      [
        "åħ",
        "«"
      ],
      [
        "å¥¹",
        "çļĦ"
      ],
      [
        "æĺ¯ä¸Ģ",
        "ä½į"
      ],
      [
        "æł¹æĵļ",
        "æıĲä¾Ľ"
      ],
      [
        "èªŀéŁ³",
        "èŃĺåĪ¥"
      ],
      [
        "èª²",
        "ç¨ĭ"
      ],
      [
        "X",
        "X"
      ],
      [
        "å±ķ",
        "çı¾"
      ],
      [
        "åĤ",
        "¾"
      ],
      [
        "è½ī",
        "æıĽ"
      ],
      [
        "Ġ",
        "âĢľ"
      ],
      [
        "åĬ",
        "ĳ"
      ],
      [
        "çļĦç",
        "Ĩ"
      ],
      [
        "æ·",
        "¨"
      ],
      [
        "çļĦæıı",
        "è¿°"
      ]
    ]
  }
}